{
  "version": "1.0",
  "truncation": null,
  "padding": null,
  "added_tokens": [
    {
      "id": 0,
      "special": true,
      "content": "<cls>",
      "single_word": false,
      "lstrip": false,
      "rstrip": false,
      "normalized": false
    },
    {
      "id": 1,
      "special": true,
      "content": "</s>",
      "single_word": false,
      "lstrip": false,
      "rstrip": false,
      "normalized": false
    },
    {
      "id": 2,
      "special": true,
      "content": "<sep>",
      "single_word": false,
      "lstrip": false,
      "rstrip": false,
      "normalized": false
    },
    {
      "id": 3,
      "special": true,
      "content": "<unk>",
      "single_word": false,
      "lstrip": false,
      "rstrip": false,
      "normalized": false
    },
    {
      "id": 4,
      "special": true,
      "content": "<s>",
      "single_word": false,
      "lstrip": false,
      "rstrip": false,
      "normalized": false
    },
    {
      "id": 5,
      "special": true,
      "content": "<pad>",
      "single_word": false,
      "lstrip": false,
      "rstrip": false,
      "normalized": false
    },
    {
      "id": 6,
      "special": true,
      "content": "<mask>",
      "single_word": false,
      "lstrip": false,
      "rstrip": false,
      "normalized": false
    }
  ],
  "normalizer": {
    "type": "Sequence",
    "normalizers": [
      {
        "type": "Replace",
        "pattern": {
          "String": "``"
        },
        "content": "\""
      },
      {
        "type": "Replace",
        "pattern": {
          "String": "''"
        },
        "content": "\""
      },
      {
        "type": "NFD"
      },
      {
        "type": "Lowercase"
      },
      {
        "type": "StripAccents"
      },
      {
        "type": "Replace",
        "pattern": {
          "Regex": " {2,}"
        },
        "content": " "
      },
      {
        "type": "Replace",
        "pattern": {
          "Regex": "[^\\x00-\\x7F]+"
        },
        "content": ""
      }
    ]
  },
  "pre_tokenizer": {
    "type": "Whitespace"
  },
  "post_processor": {
    "type": "TemplateProcessing",
    "single": [
      {
        "Sequence": {
          "id": "A",
          "type_id": 0
        }
      },
      {
        "SpecialToken": {
          "id": "<sep>",
          "type_id": 0
        }
      }
    ],
    "pair": [
      {
        "SpecialToken": {
          "id": "<cls>",
          "type_id": 0
        }
      },
      {
        "Sequence": {
          "id": "A",
          "type_id": 0
        }
      },
      {
        "SpecialToken": {
          "id": "<sep>",
          "type_id": 0
        }
      },
      {
        "Sequence": {
          "id": "B",
          "type_id": 0
        }
      },
      {
        "SpecialToken": {
          "id": "<sep>",
          "type_id": 0
        }
      }
    ],
    "special_tokens": {
      "<cls>": {
        "id": "<cls>",
        "ids": [
          0
        ],
        "tokens": [
          "<cls>"
        ]
      },
      "<sep>": {
        "id": "<sep>",
        "ids": [
          2
        ],
        "tokens": [
          "<sep>"
        ]
      }
    }
  },
  "decoder": {
    "type": "WordPiece",
    "prefix": "##",
    "cleanup": true
  },
  "model": {
    "type": "WordPiece",
    "unk_token": "<unk>",
    "continuing_subword_prefix": "##",
    "max_input_chars_per_word": 100,
    "vocab": {
      "<cls>": 0,
      "</s>": 1,
      "<sep>": 2,
      "<unk>": 3,
      "<s>": 4,
      "<pad>": 5,
      "<mask>": 6,
      "\u0013": 7,
      "\u0014": 8,
      "\u0018": 9,
      "\u0019": 10,
      "\u001c": 11,
      "\u001d": 12,
      "\u001f": 13,
      "!": 14,
      "\"": 15,
      "#": 16,
      "$": 17,
      "%": 18,
      "&": 19,
      "'": 20,
      "(": 21,
      ")": 22,
      "*": 23,
      "+": 24,
      ",": 25,
      "-": 26,
      ".": 27,
      "/": 28,
      "0": 29,
      "1": 30,
      "2": 31,
      "3": 32,
      "4": 33,
      "5": 34,
      "6": 35,
      "7": 36,
      "8": 37,
      "9": 38,
      ":": 39,
      ";": 40,
      "<": 41,
      "=": 42,
      ">": 43,
      "?": 44,
      "@": 45,
      "[": 46,
      "\\": 47,
      "]": 48,
      "^": 49,
      "_": 50,
      "`": 51,
      "a": 52,
      "b": 53,
      "c": 54,
      "d": 55,
      "e": 56,
      "f": 57,
      "g": 58,
      "h": 59,
      "i": 60,
      "j": 61,
      "k": 62,
      "l": 63,
      "m": 64,
      "n": 65,
      "o": 66,
      "p": 67,
      "q": 68,
      "r": 69,
      "s": 70,
      "t": 71,
      "u": 72,
      "v": 73,
      "w": 74,
      "x": 75,
      "y": 76,
      "z": 77,
      "{": 78,
      "|": 79,
      "}": 80,
      "~": 81,
      "": 82,
      "##u": 83,
      "##r": 84,
      "##c": 85,
      "##e": 86,
      "##a": 87,
      "##b": 88,
      "##n": 89,
      "##j": 90,
      "##i": 91,
      "##k": 92,
      "##h": 93,
      "##v": 94,
      "##s": 95,
      "##m": 96,
      "##l": 97,
      "##t": 98,
      "##o": 99,
      "##y": 100,
      "##-": 101,
      "##)": 102,
      "##d": 103,
      "##0": 104,
      "##4": 105,
      "##5": 106,
      "##g": 107,
      "##p": 108,
      "##w": 109,
      "##x": 110,
      "##_": 111,
      "##9": 112,
      "##f": 113,
      "##2": 114,
      "##3": 115,
      "##z": 116,
      "##1": 117,
      "##7": 118,
      "##8": 119,
      "##6": 120,
      "##'": 121,
      "##:": 122,
      "##q": 123,
      "##(": 124,
      "##&": 125,
      "##.": 126,
      "##]": 127,
      "##\"": 128,
      "##,": 129,
      "##+": 130,
      "##{": 131,
      "##`": 132,
      "##/": 133,
      "##!": 134,
      "##^": 135,
      "##|": 136,
      "##[": 137,
      "##$": 138,
      "##*": 139,
      "##=": 140,
      "##}": 141,
      "##?": 142,
      "##~": 143,
      "##>": 144,
      "##;": 145,
      "##<": 146,
      "###": 147,
      "##@": 148,
      "##%": 149,
      "##\\": 150,
      "##\u001d": 151,
      "##\u0018": 152,
      "##\u0019": 153,
      "##he": 154,
      "##er": 155,
      "the": 156,
      "##in": 157,
      "##on": 158,
      "##ed": 159,
      "##an": 160,
      "##or": 161,
      "##at": 162,
      "##es": 163,
      "##en": 164,
      "##ar": 165,
      "in": 166,
      "##al": 167,
      "an": 168,
      "of": 169,
      "##is": 170,
      "##it": 171,
      "##ing": 172,
      "##as": 173,
      "##ou": 174,
      "and": 175,
      "##ic": 176,
      "to": 177,
      "##ion": 178,
      "##re": 179,
      "##om": 180,
      "##il": 181,
      "##el": 182,
      "##ent": 183,
      "th": 184,
      "##le": 185,
      "##st": 186,
      "##am": 187,
      "##ol": 188,
      "##ad": 189,
      "##ac": 190,
      "re": 191,
      "st": 192,
      "##ur": 193,
      "##et": 194,
      "##ot": 195,
      "was": 196,
      "on": 197,
      "##id": 198,
      "for": 199,
      "##ir": 200,
      "##ow": 201,
      "##ig": 202,
      "he": 203,
      "##ec": 204,
      "##iv": 205,
      "##ut": 206,
      "as": 207,
      "##ly": 208,
      "##ay": 209,
      "##ers": 210,
      "19": 211,
      "pr": 212,
      "##ation": 213,
      "al": 214,
      "##im": 215,
      "##ter": 216,
      "is": 217,
      "it": 218,
      "##ch": 219,
      "##ith": 220,
      "20": 221,
      "be": 222,
      "fr": 223,
      "##em": 224,
      "##us": 225,
      "with": 226,
      "##ist": 227,
      "wh": 228,
      "at": 229,
      "##os": 230,
      "##op": 231,
      "##and": 232,
      "##th": 233,
      "ch": 234,
      "##ce": 235,
      "##ul": 236,
      "that": 237,
      "##ag": 238,
      "##ct": 239,
      "##od": 240,
      "##ver": 241,
      "##un": 242,
      "##oun": 243,
      "by": 244,
      "con": 245,
      "##her": 246,
      "his": 247,
      "un": 248,
      "##um": 249,
      "com": 250,
      "##av": 251,
      "##ain": 252,
      "##oc": 253,
      "##est": 254,
      "from": 255,
      "##ap": 256,
      "de": 257,
      "se": 258,
      "her": 259,
      "##ess": 260,
      "##ld": 261,
      "ne": 262,
      "##ov": 263,
      "tr": 264,
      "ar": 265,
      "##ab": 266,
      "##igh": 267,
      "##all": 268,
      "##ian": 269,
      "##ak": 270,
      "pl": 271,
      "##ill": 272,
      "sh": 273,
      "le": 274,
      "##ies": 275,
      "or": 276,
      "##art": 277,
      "##if": 278,
      "ex": 279,
      "##ard": 280,
      "##ip": 281,
      "she": 282,
      "en": 283,
      "##ia": 284,
      "##ity": 285,
      "##ate": 286,
      "##ber": 287,
      "su": 288,
      "##our": 289,
      "br": 290,
      "sp": 291,
      "##ant": 292,
      "##ort": 293,
      "##ud": 294,
      "201": 295,
      "##se": 296,
      "##og": 297,
      "##ight": 298,
      "##gh": 299,
      "##ack": 300,
      "##ell": 301,
      "##ie": 302,
      "you": 303,
      "##ok": 304,
      "gr": 305,
      "##ust": 306,
      "##ere": 307,
      "##ich": 308,
      "cl": 309,
      "200": 310,
      "##ear": 311,
      "##ated": 312,
      "had": 313,
      "are": 314,
      "##ive": 315,
      "##ast": 316,
      "##ound": 317,
      "##ge": 318,
      "##ect": 319,
      "not": 320,
      "##ore": 321,
      "##ong": 322,
      "##ary": 323,
      "wor": 324,
      "##ish": 325,
      "##ial": 326,
      "me": 327,
      "were": 328,
      ".\"": 329,
      "##fer": 330,
      "##ould": 331,
      "##ment": 332,
      "##pp": 333,
      "am": 334,
      "##ine": 335,
      "##ame": 336,
      "but": 337,
      "##ue": 338,
      "##ave": 339,
      "##ough": 340,
      "whe": 341,
      "##ib": 342,
      "this": 343,
      "comp": 344,
      "af": 345,
      "##ost": 346,
      "##ub": 347,
      "##der": 348,
      "ab": 349,
      "##ces": 350,
      "##out": 351,
      "go": 352,
      "18": 353,
      "sc": 354,
      "mar": 355,
      "||": 356,
      "##so": 357,
      "my": 358,
      "##ions": 359,
      "##ical": 360,
      "new": 361,
      "##end": 362,
      "all": 363,
      "##hed": 364,
      "##own": 365,
      "##ik": 366,
      "cr": 367,
      "we": 368,
      "man": 369,
      "ad": 370,
      "##ome": 371,
      "int": 372,
      "which": 373,
      "##ous": 374,
      "##pt": 375,
      "play": 376,
      "##ks": 377,
      "##uc": 378,
      "also": 379,
      "do": 380,
      "##ign": 381,
      "one": 382,
      "##ass": 383,
      "fir": 384,
      "##tern": 385,
      "ser": 386,
      "##iz": 387,
      "##age": 388,
      "##qu": 389,
      "##ord": 390,
      "##ure": 391,
      "they": 392,
      "him": 393,
      "##ide": 394,
      "##ire": 395,
      "ac": 396,
      "car": 397,
      "out": 398,
      "col": 399,
      "res": 400,
      "ag": 401,
      "up": 402,
      "ro": 403,
      "have": 404,
      "##ice": 405,
      "sa": 406,
      "dr": 407,
      "##ace": 408,
      "kn": 409,
      "first": 410,
      "##tr": 411,
      "us": 412,
      "),": 413,
      "##per": 414,
      "##ans": 415,
      "inc": 416,
      "pe": 417,
      "tw": 418,
      "fe": 419,
      "part": 420,
      "##ther": 421,
      "comm": 422,
      "##ang": 423,
      "##ook": 424,
      "tim": 425,
      "199": 426,
      "who": 427,
      "##ied": 428,
      "can": 429,
      "##ember": 430,
      "##pr": 431,
      "##ond": 432,
      "##one": 433,
      "##feren": 434,
      "has": 435,
      "##act": 436,
      "te": 437,
      "their": 438,
      "so": 439,
      "##man": 440,
      "##orn": 441,
      "cent": 442,
      "##ach": 443,
      "after": 444,
      "bl": 445,
      "##ican": 446,
      "year": 447,
      "##aw": 448,
      "##ict": 449,
      "##ory": 450,
      "ind": 451,
      "co": 452,
      "##ind": 453,
      "##ater": 454,
      "its": 455,
      "##ational": 456,
      "##ations": 457,
      "off": 458,
      "rec": 459,
      "per": 460,
      "##ath": 461,
      "##amp": 462,
      "coun": 463,
      "##land": 464,
      "rel": 465,
      "##ult": 466,
      "##ally": 467,
      "##ree": 468,
      "app": 469,
      "ev": 470,
      "##ick": 471,
      "##ens": 472,
      "im": 473,
      "des": 474,
      "over": 475,
      "there": 476,
      "dis": 477,
      "##ug": 478,
      "been": 479,
      "amer": 480,
      "no": 481,
      "when": 482,
      "##ry": 483,
      "referen": 484,
      "##ite": 485,
      "sch": 486,
      "fl": 487,
      "fil": 488,
      "##ople": 489,
      "other": 490,
      "##ition": 491,
      "bec": 492,
      "jo": 493,
      "##ff": 494,
      "two": 495,
      "##ile": 496,
      "str": 497,
      "references": 498,
      "par": 499,
      "##ade": 500,
      "into": 501,
      "##ose": 502,
      "pro": 503,
      "##ates": 504,
      "##ited": 505,
      "##uct": 506,
      "act": 507,
      "##iss": 508,
      "##ail": 509,
      "##way": 510,
      "would": 511,
      "##ward": 512,
      "##oll": 513,
      "##itt": 514,
      "##ence": 515,
      "##00": 516,
      "##ance": 517,
      "##ake": 518,
      "##pl": 519,
      "ed": 520,
      "people": 521,
      "##ild": 522,
      "198": 523,
      "time": 524,
      "##ents": 525,
      "##urn": 526,
      "##ely": 527,
      "##ool": 528,
      "back": 529,
      "film": 530,
      "ph": 531,
      "##ors": 532,
      "pol": 533,
      "##les": 534,
      "##ings": 535,
      "##int": 536,
      "##ey": 537,
      "##ivers": 538,
      "##ubl": 539,
      "sec": 540,
      "qu": 541,
      "##ty": 542,
      "##lect": 543,
      "ass": 544,
      "form": 545,
      "mus": 546,
      "dec": 547,
      "##ike": 548,
      "##ock": 549,
      "pre": 550,
      "##oss": 551,
      "##oot": 552,
      "##ft": 553,
      "##lud": 554,
      "##old": 555,
      "wr": 556,
      "##we": 557,
      "american": 558,
      "##able": 559,
      "thr": 560,
      "about": 561,
      "may": 562,
      "##ra": 563,
      "fin": 564,
      "reg": 565,
      "##wn": 566,
      "##ood": 567,
      "##ep": 568,
      "##ball": 569,
      "##ase": 570,
      "##ogr": 571,
      "##orm": 572,
      ").": 573,
      "##io": 574,
      "lin": 575,
      "197": 576,
      "gen": 577,
      "what": 578,
      "then": 579,
      "##ah": 580,
      "eng": 581,
      "includ": 582,
      "again": 583,
      "some": 584,
      "##ro": 585,
      "sm": 586,
      "more": 587,
      "em": 588,
      "##az": 589,
      "##uring": 590,
      "art": 591,
      "##ased": 592,
      "bu": 593,
      "them": 594,
      "war": 595,
      "said": 596,
      "##eld": 597,
      "did": 598,
      "school": 599,
      "bet": 600,
      "gu": 601,
      "cont": 602,
      "bo": 603,
      "will": 604,
      "serv": 605,
      "under": 606,
      "##hip": 607,
      "work": 608,
      "how": 609,
      "##ics": 610,
      "##hn": 611,
      "##other": 612,
      "ear": 613,
      "##ason": 614,
      "gre": 615,
      "dist": 616,
      "univers": 617,
      "min": 618,
      "sy": 619,
      "##als": 620,
      "##air": 621,
      "hist": 622,
      "##port": 623,
      "if": 624,
      "##gan": 625,
      "##ont": 626,
      "could": 627,
      "\"\"": 628,
      "##ished": 629,
      "##outh": 630,
      "196": 631,
      "only": 632,
      "po": 633,
      "pres": 634,
      "like": 635,
      "##ious": 636,
      "nor": 637,
      "world": 638,
      "##au": 639,
      "see": 640,
      "publ": 641,
      "##vel": 642,
      "##aus": 643,
      "cons": 644,
      "acc": 645,
      "##ale": 646,
      "##ision": 647,
      "foot": 648,
      "loc": 649,
      "just": 650,
      "##ton": 651,
      "##ife": 652,
      "##ily": 653,
      "##ett": 654,
      "##ury": 655,
      "##anc": 656,
      "during": 657,
      "##ix": 658,
      "##br": 659,
      "where": 660,
      "through": 661,
      "med": 662,
      "than": 663,
      "char": 664,
      "##let": 665,
      "##fore": 666,
      "##olog": 667,
      "national": 668,
      "##ral": 669,
      "att": 670,
      "stud": 671,
      "##pen": 672,
      "prod": 673,
      "##ier": 674,
      "ma": 675,
      "##oth": 676,
      "##ames": 677,
      "##ons": 678,
      "university": 679,
      "##cc": 680,
      "sl": 681,
      "found": 682,
      "any": 683,
      "united": 684,
      "rem": 685,
      "##led": 686,
      "team": 687,
      "mov": 688,
      "##hes": 689,
      "air": 690,
      "##ince": 691,
      "##oup": 692,
      "##tain": 693,
      "most": 694,
      "inter": 695,
      "##ists": 696,
      "##ank": 697,
      "elect": 698,
      "el": 699,
      "before": 700,
      "hand": 701,
      "##ouse": 702,
      "##ery": 703,
      "##att": 704,
      "sub": 705,
      "fam": 706,
      "##uary": 707,
      "right": 708,
      "arm": 709,
      "est": 710,
      "194": 711,
      "made": 712,
      "day": 713,
      "high": 714,
      "head": 715,
      "state": 716,
      "ever": 717,
      "17": 718,
      "look": 719,
      "down": 720,
      "##ev": 721,
      "##elf": 722,
      "inst": 723,
      "years": 724,
      "end": 725,
      "second": 726,
      "sing": 727,
      "195": 728,
      "##ternal": 729,
      "liv": 730,
      "football": 731,
      "spec": 732,
      "##son": 733,
      "bar": 734,
      "well": 735,
      "city": 736,
      "##ating": 737,
      "##form": 738,
      "sur": 739,
      "##ph": 740,
      "##ann": 741,
      "south": 742,
      "born": 743,
      "##hing": 744,
      "##ollow": 745,
      "record": 746,
      "pop": 747,
      "trans": 748,
      "##ween": 749,
      "season": 750,
      "##ri": 751,
      "##irect": 752,
      "alb": 753,
      "three": 754,
      "now": 755,
      "between": 756,
      "bir": 757,
      "##ork": 758,
      "wom": 759,
      "def": 760,
      "##ather": 761,
      "##gr": 762,
      "call": 763,
      "follow": 764,
      "states": 765,
      "direct": 766,
      "##ped": 767,
      "later": 768,
      "win": 769,
      "distr": 770,
      "##iet": 771,
      "bel": 772,
      "gl": 773,
      "prov": 774,
      "mon": 775,
      "##up": 776,
      "sw": 777,
      "external": 778,
      "links": 779,
      "met": 780,
      "##ities": 781,
      "gener": 782,
      "while": 783,
      "##enn": 784,
      "cap": 785,
      "##ys": 786,
      "players": 787,
      "##aph": 788,
      "nov": 789,
      "contr": 790,
      "##ative": 791,
      "la": 792,
      "ter": 793,
      "##ement": 794,
      "##ina": 795,
      "long": 796,
      "10": 797,
      "##ular": 798,
      "ret": 799,
      "##ked": 800,
      "know": 801,
      "##vern": 802,
      "id": 803,
      "##are": 804,
      "north": 805,
      "group": 806,
      "##ual": 807,
      "rev": 808,
      "soc": 809,
      "inv": 810,
      "cre": 811,
      "##ink": 812,
      "mem": 813,
      "rele": 814,
      "list": 815,
      "house": 816,
      "##ower": 817,
      "music": 818,
      "open": 819,
      "##20": 820,
      "century": 821,
      "care": 822,
      "govern": 823,
      "##ts": 824,
      "num": 825,
      "life": 826,
      "##enc": 827,
      "ge": 828,
      "##til": 829,
      "##lish": 830,
      "193": 831,
      "ann": 832,
      "want": 833,
      "compan": 834,
      "lar": 835,
      "##sp": 836,
      "being": 837,
      "though": 838,
      "song": 839,
      "##cr": 840,
      "16": 841,
      "four": 842,
      "john": 843,
      "album": 844,
      "against": 845,
      "##ise": 846,
      "ger": 847,
      "such": 848,
      "##ific": 849,
      "##iam": 850,
      "##ob": 851,
      "dep": 852,
      "used": 853,
      "pers": 854,
      "jun": 855,
      "##ove": 856,
      "supp": 857,
      "award": 858,
      "che": 859,
      "##ott": 860,
      "mat": 861,
      "15": 862,
      "##ional": 863,
      "##oy": 864,
      "##ull": 865,
      "##und": 866,
      "around": 867,
      "way": 868,
      "offic": 869,
      "##ject": 870,
      "##ths": 871,
      "##ague": 872,
      "##ield": 873,
      "##ning": 874,
      "##ric": 875,
      "##ause": 876,
      "aust": 877,
      "##ley": 878,
      "##ope": 879,
      "known": 880,
      "own": 881,
      "both": 882,
      "county": 883,
      "your": 884,
      "history": 885,
      "series": 886,
      "ob": 887,
      "show": 888,
      "bre": 889,
      "##ident": 890,
      "many": 891,
      "##ures": 892,
      "sk": 893,
      "lead": 894,
      "start": 895,
      "ey": 896,
      "death": 897,
      "cur": 898,
      "add": 899,
      "##ins": 900,
      "mod": 901,
      "intern": 902,
      "##erv": 903,
      "these": 904,
      "##ew": 905,
      "oper": 906,
      "##els": 907,
      "district": 908,
      "cour": 909,
      "until": 910,
      "jan": 911,
      "##its": 912,
      "##iver": 913,
      "class": 914,
      "champ": 915,
      "har": 916,
      "##ful": 917,
      "even": 918,
      "commun": 919,
      "##ern": 920,
      "##ee": 921,
      "##aking": 922,
      "prof": 923,
      "run": 924,
      "get": 925,
      "town": 926,
      "build": 927,
      "##iew": 928,
      "\".": 929,
      "##ograph": 930,
      "##uss": 931,
      "family": 932,
      "brit": 933,
      "old": 934,
      "cor": 935,
      "12": 936,
      "main": 937,
      "##str": 938,
      "polit": 939,
      "mu": 940,
      "##omet": 941,
      "##velop": 942,
      "##ese": 943,
      "mil": 944,
      "##xt": 945,
      "league": 946,
      "wal": 947,
      "every": 948,
      "##ll": 949,
      "since": 950,
      "##..": 951,
      "book": 952,
      "became": 953,
      "sim": 954,
      "##red": 955,
      "##bers": 956,
      "##uction": 957,
      "##19": 958,
      "tel": 959,
      "aut": 960,
      "cal": 961,
      "##ior": 962,
      "leg": 963,
      "dem": 964,
      "##ism": 965,
      "hel": 966,
      "develop": 967,
      "red": 968,
      "##ister": 969,
      "estab": 970,
      "left": 971,
      "miss": 972,
      "##ark": 973,
      "chr": 974,
      "club": 975,
      "sign": 976,
      "turn": 977,
      "##ever": 978,
      "exp": 979,
      "##eng": 980,
      "west": 981,
      "div": 982,
      "ju": 983,
      "law": 984,
      "women": 985,
      "public": 986,
      "##ner": 987,
      "##co": 988,
      "##ently": 989,
      "won": 990,
      "##0s": 991,
      "##ourn": 992,
      "##ized": 993,
      "including": 994,
      "orig": 995,
      "king": 996,
      "star": 997,
      "##ural": 998,
      "11": 999,
      "rece": 1000,
      "name": 1001,
      "##ash": 1002,
      "german": 1003,
      "##amed": 1004,
      "early": 1005,
      "##urch": 1006,
      "colle": 1007,
      "##ments": 1008,
      "\",": 1009,
      "rep": 1010,
      "bus": 1011,
      "living": 1012,
      "still": 1013,
      "because": 1014,
      "international": 1015,
      "##ets": 1016,
      "child": 1017,
      "##ange": 1018,
      "|-": 1019,
      "land": 1020,
      "place": 1021,
      "##ai": 1022,
      "##ling": 1023,
      "sever": 1024,
      "appear": 1025,
      "##ived": 1026,
      "##uck": 1027,
      "##iev": 1028,
      "progr": 1029,
      "point": 1030,
      "192": 1031,
      "##ined": 1032,
      "dif": 1033,
      "##ted": 1034,
      "##ene": 1035,
      "av": 1036,
      "##stem": 1037,
      "##mer": 1038,
      "##ians": 1039,
      "##augh": 1040,
      "origin": 1041,
      "##osed": 1042,
      "stre": 1043,
      "game": 1044,
      "##by": 1045,
      "design": 1046,
      "val": 1047,
      "say": 1048,
      "##hen": 1049,
      "191": 1050,
      "##ually": 1051,
      "home": 1052,
      "##inc": 1053,
      "films": 1054,
      "var": 1055,
      "aug": 1056,
      "number": 1057,
      "austral": 1058,
      "person": 1059,
      "york": 1060,
      "##ution": 1061,
      "same": 1062,
      "system": 1063,
      "near": 1064,
      "##ble": 1065,
      "good": 1066,
      "oct": 1067,
      "took": 1068,
      "del": 1069,
      "14": 1070,
      "best": 1071,
      "ke": 1072,
      "13": 1073,
      "need": 1074,
      "##ible": 1075,
      "port": 1076,
      "##ae": 1077,
      "former": 1078,
      "march": 1079,
      "conc": 1080,
      "##yp": 1081,
      "##ient": 1082,
      "champions": 1083,
      "organ": 1084,
      "##ute": 1085,
      "pat": 1086,
      "sept": 1087,
      "inf": 1088,
      "pass": 1089,
      "bas": 1090,
      "british": 1091,
      "prot": 1092,
      "##oci": 1093,
      "called": 1094,
      "area": 1095,
      "##ology": 1096,
      "...": 1097,
      "align": 1098,
      "however": 1099,
      "company": 1100,
      "career": 1101,
      "last": 1102,
      "ins": 1103,
      "##ica": 1104,
      "##iter": 1105,
      "mid": 1106,
      "##get": 1107,
      "##ert": 1108,
      "vill": 1109,
      "august": 1110,
      "each": 1111,
      "ir": 1112,
      "associ": 1113,
      "##ek": 1114,
      "mag": 1115,
      "men": 1116,
      "eur": 1117,
      "following": 1118,
      "somet": 1119,
      "september": 1120,
      "maj": 1121,
      "prop": 1122,
      "##ober": 1123,
      "##eter": 1124,
      "ang": 1125,
      "return": 1126,
      "contin": 1127,
      "government": 1128,
      "##ised": 1129,
      "games": 1130,
      "##ody": 1131,
      "tre": 1132,
      "##ium": 1133,
      "general": 1134,
      "##ren": 1135,
      "ve": 1136,
      "ra": 1137,
      "october": 1138,
      "##ung": 1139,
      "eyes": 1140,
      "ep": 1141,
      "##ane": 1142,
      "another": 1143,
      "several": 1144,
      "based": 1145,
      "=\"": 1146,
      "small": 1147,
      "arch": 1148,
      "repr": 1149,
      "black": 1150,
      "##ced": 1151,
      "january": 1152,
      "center": 1153,
      "played": 1154,
      "##bert": 1155,
      "released": 1156,
      "##min": 1157,
      "apr": 1158,
      "college": 1159,
      "educ": 1160,
      "june": 1161,
      "feat": 1162,
      "much": 1163,
      "far": 1164,
      "##ants": 1165,
      "##ages": 1166,
      "make": 1167,
      "births": 1168,
      "order": 1169,
      "members": 1170,
      "##ady": 1171,
      "##ital": 1172,
      "hum": 1173,
      "resp": 1174,
      "english": 1175,
      "july": 1176,
      "canad": 1177,
      "##ained": 1178,
      "21": 1179,
      "should": 1180,
      "camp": 1181,
      "stand": 1182,
      "##ief": 1183,
      "##yl": 1184,
      "april": 1185,
      "adv": 1186,
      "ste": 1187,
      "##cept": 1188,
      "sum": 1189,
      "set": 1190,
      "##ives": 1191,
      "arr": 1192,
      "along": 1193,
      "##aving": 1194,
      "##bs": 1195,
      "use": 1196,
      "profess": 1197,
      "##ime": 1198,
      "conf": 1199,
      "popul": 1200,
      "line": 1201,
      "##ying": 1202,
      "##ured": 1203,
      "##ench": 1204,
      "east": 1205,
      "##ows": 1206,
      "never": 1207,
      "held": 1208,
      "thir": 1209,
      "##ected": 1210,
      "countr": 1211,
      "prom": 1212,
      "##ues": 1213,
      "here": 1214,
      "think": 1215,
      "major": 1216,
      "top": 1217,
      "band": 1218,
      "rest": 1219,
      "november": 1220,
      "away": 1221,
      "program": 1222,
      "##uced": 1223,
      "##ider": 1224,
      "descr": 1225,
      "##ired": 1226,
      "histor": 1227,
      "##hern": 1228,
      "result": 1229,
      "real": 1230,
      "##erg": 1231,
      "##ret": 1232,
      "##ched": 1233,
      "began": 1234,
      "##ony": 1235,
      "side": 1236,
      "2010": 1237,
      "december": 1238,
      "mill": 1239,
      "##aces": 1240,
      "sen": 1241,
      "party": 1242,
      "##aced": 1243,
      "going": 1244,
      "##self": 1245,
      "great": 1246,
      "##uk": 1247,
      "##ided": 1248,
      "##yn": 1249,
      "##sh": 1250,
      "rad": 1251,
      "##mp": 1252,
      "take": 1253,
      "church": 1254,
      "##icip": 1255,
      "water": 1256,
      "##yle": 1257,
      "##gin": 1258,
      "tit": 1259,
      "##ator": 1260,
      "championship": 1261,
      "000": 1262,
      "manag": 1263,
      "complet": 1264,
      "support": 1265,
      "##ices": 1266,
      "##por": 1267,
      "##ats": 1268,
      "##ued": 1269,
      "eff": 1270,
      "##ection": 1271,
      "##ittle": 1272,
      "##ially": 1273,
      "very": 1274,
      "christ": 1275,
      "telev": 1276,
      "phil": 1277,
      "park": 1278,
      "hal": 1279,
      "##ilt": 1280,
      "member": 1281,
      "president": 1282,
      "rail": 1283,
      "sport": 1284,
      "##ax": 1285,
      "##ote": 1286,
      "tal": 1287,
      "##esent": 1288,
      "station": 1289,
      "2011": 1290,
      "##ize": 1291,
      "ii": 1292,
      "vol": 1293,
      "road": 1294,
      "little": 1295,
      "compet": 1296,
      "mo": 1297,
      "power": 1298,
      "##ility": 1299,
      "rom": 1300,
      "vo": 1301,
      "ec": 1302,
      "##iness": 1303,
      "mark": 1304,
      "europe": 1305,
      "##ines": 1306,
      "kill": 1307,
      "let": 1308,
      "##ography": 1309,
      "##ience": 1310,
      "television": 1311,
      "lang": 1312,
      "190": 1313,
      "final": 1314,
      "##apan": 1315,
      "geor": 1316,
      "too": 1317,
      "2008": 1318,
      "##ically": 1319,
      "those": 1320,
      "spe": 1321,
      "short": 1322,
      "local": 1323,
      "cle": 1324,
      "es": 1325,
      "night": 1326,
      "2012": 1327,
      "##ended": 1328,
      "occ": 1329,
      "##aint": 1330,
      "sil": 1331,
      "##bruary": 1332,
      "tec": 1333,
      "pa": 1334,
      "february": 1335,
      "##que": 1336,
      "##ison": 1337,
      "##olv": 1338,
      "##ried": 1339,
      "island": 1340,
      "ext": 1341,
      "##oph": 1342,
      "##ger": 1343,
      "##lex": 1344,
      "japan": 1345,
      "##app": 1346,
      "river": 1347,
      "mal": 1348,
      "##che": 1349,
      "2009": 1350,
      "##oad": 1351,
      "six": 1352,
      "sal": 1353,
      "##ata": 1354,
      "beh": 1355,
      "track": 1356,
      "face": 1357,
      "ant": 1358,
      "pos": 1359,
      "post": 1360,
      "##ama": 1361,
      "moun": 1362,
      "light": 1363,
      "youn": 1364,
      "batt": 1365,
      "came": 1366,
      "ref": 1367,
      "##lished": 1368,
      "2007": 1369,
      "##ode": 1370,
      "2014": 1371,
      "2006": 1372,
      "white": 1373,
      "##eal": 1374,
      "son": 1375,
      "fre": 1376,
      "father": 1377,
      "prev": 1378,
      "2013": 1379,
      "##iting": 1380,
      "french": 1381,
      "25": 1382,
      "##aster": 1383,
      "named": 1384,
      "five": 1385,
      "##ately": 1386,
      "30": 1387,
      "##ne": 1388,
      "##21": 1389,
      "fur": 1390,
      "##onom": 1391,
      "##akes": 1392,
      "##ana": 1393,
      "##ival": 1394,
      "vis": 1395,
      "service": 1396,
      "##ored": 1397,
      "##ips": 1398,
      "##ham": 1399,
      "##ness": 1400,
      "2015": 1401,
      "represent": 1402,
      "fri": 1403,
      "##te": 1404,
      "##ms": 1405,
      "disc": 1406,
      "##bo": 1407,
      "press": 1408,
      "report": 1409,
      "189": 1410,
      "room": 1411,
      "##ains": 1412,
      "##eder": 1413,
      "conv": 1414,
      "2016": 1415,
      "went": 1416,
      "nat": 1417,
      "##ford": 1418,
      "##med": 1419,
      "##be": 1420,
      "##ds": 1421,
      "gir": 1422,
      "william": 1423,
      "##ides": 1424,
      "##day": 1425,
      "##ten": 1426,
      "##ps": 1427,
      "giv": 1428,
      "##ards": 1429,
      "##ention": 1430,
      "few": 1431,
      "##gest": 1432,
      "##aining": 1433,
      "established": 1434,
      "event": 1435,
      "friend": 1436,
      "cast": 1437,
      "langu": 1438,
      "single": 1439,
      "russ": 1440,
      "vict": 1441,
      "sol": 1442,
      "##ared": 1443,
      "##ster": 1444,
      "thought": 1445,
      "age": 1446,
      "bi": 1447,
      "located": 1448,
      "business": 1449,
      "##atch": 1450,
      "our": 1451,
      "died": 1452,
      "dav": 1453,
      "ll": 1454,
      "techn": 1455,
      "##atic": 1456,
      "vers": 1457,
      "describ": 1458,
      "typ": 1459,
      "ital": 1460,
      "##thing": 1461,
      "deb": 1462,
      "squ": 1463,
      "super": 1464,
      "milit": 1465,
      "auth": 1466,
      "##for": 1467,
      "##iety": 1468,
      "building": 1469,
      "##elt": 1470,
      "field": 1471,
      "next": 1472,
      "cond": 1473,
      "##col": 1474,
      "##ged": 1475,
      "due": 1476,
      "##itions": 1477,
      "##press": 1478,
      "curr": 1479,
      "bur": 1480,
      "roy": 1481,
      "cup": 1482,
      "hon": 1483,
      "lab": 1484,
      "##ars": 1485,
      "tell": 1486,
      "##ara": 1487,
      "sn": 1488,
      "depart": 1489,
      "2017": 1490,
      "division": 1491,
      "find": 1492,
      "##me": 1493,
      "army": 1494,
      "ele": 1495,
      "something": 1496,
      "lond": 1497,
      "population": 1498,
      "differ": 1499,
      "mor": 1500,
      "san": 1501,
      "2018": 1502,
      "sound": 1503,
      "pal": 1504,
      "##alth": 1505,
      "hol": 1506,
      "stat": 1507,
      "children": 1508,
      "rock": 1509,
      "built": 1510,
      "tem": 1511,
      "succ": 1512,
      "within": 1513,
      "london": 1514,
      "round": 1515,
      "times": 1516,
      "third": 1517,
      "hard": 1518,
      "come": 1519,
      "##ino": 1520,
      "style": 1521,
      "got": 1522,
      "##adem": 1523,
      "er": 1524,
      "expl": 1525,
      "love": 1526,
      "##ified": 1527,
      "net": 1528,
      "eas": 1529,
      "resear": 1530,
      "grand": 1531,
      "looked": 1532,
      "cult": 1533,
      "##nt": 1534,
      "engine": 1535,
      "body": 1536,
      "large": 1537,
      "oly": 1538,
      "##idge": 1539,
      "fac": 1540,
      "ca": 1541,
      "present": 1542,
      "player": 1543,
      "enter": 1544,
      "asked": 1545,
      "put": 1546,
      "##ought": 1547,
      "tour": 1548,
      "success": 1549,
      "ap": 1550,
      "official": 1551,
      "##ones": 1552,
      "2019": 1553,
      "olymp": 1554,
      "counc": 1555,
      "##bur": 1556,
      "gold": 1557,
      "##cl": 1558,
      "fact": 1559,
      "vi": 1560,
      "ent": 1561,
      "##ress": 1562,
      "2005": 1563,
      "##osp": 1564,
      "stop": 1565,
      "village": 1566,
      "instit": 1567,
      "sat": 1568,
      "##ille": 1569,
      "girl": 1570,
      "published": 1571,
      "mer": 1572,
      "association": 1573,
      "repl": 1574,
      "##ission": 1575,
      "24": 1576,
      "##ency": 1577,
      "188": 1578,
      "served": 1579,
      "species": 1580,
      "indian": 1581,
      "without": 1582,
      "##ron": 1583,
      "proc": 1584,
      "feel": 1585,
      "##omin": 1586,
      "li": 1587,
      "##han": 1588,
      "project": 1589,
      "##ipp": 1590,
      "collect": 1591,
      "moved": 1592,
      "##res": 1593,
      "()": 1594,
      "started": 1595,
      "non": 1596,
      "##ches": 1597,
      "wind": 1598,
      "##ring": 1599,
      "front": 1600,
      "vide": 1601,
      "received": 1602,
      "##ways": 1603,
      "det": 1604,
      "different": 1605,
      "conn": 1606,
      "##ma": 1607,
      "nort": 1608,
      "wa": 1609,
      "equ": 1610,
      "hold": 1611,
      "command": 1612,
      "court": 1613,
      "##fe": 1614,
      "country": 1615,
      "imp": 1616,
      "does": 1617,
      "education": 1618,
      "read": 1619,
      "const": 1620,
      "ill": 1621,
      "special": 1622,
      "academ": 1623,
      "hall": 1624,
      "##aim": 1625,
      "##umb": 1626,
      "mun": 1627,
      "poss": 1628,
      "##estern": 1629,
      "2004": 1630,
      "##aff": 1631,
      "help": 1632,
      "vir": 1633,
      "terr": 1634,
      "brother": 1635,
      "mich": 1636,
      "accord": 1637,
      "military": 1638,
      "street": 1639,
      "consider": 1640,
      "exper": 1641,
      "don": 1642,
      "opp": 1643,
      "once": 1644,
      "central": 1645,
      "##ani": 1646,
      "2020": 1647,
      "mom": 1648,
      "door": 1649,
      "##oke": 1650,
      "##den": 1651,
      "dou": 1652,
      "requ": 1653,
      "council": 1654,
      "pur": 1655,
      "mother": 1656,
      "works": 1657,
      "alth": 1658,
      "addition": 1659,
      "##ached": 1660,
      "big": 1661,
      "iss": 1662,
      "##yr": 1663,
      "journ": 1664,
      "although": 1665,
      "male": 1666,
      "##ler": 1667,
      "cross": 1668,
      "que": 1669,
      "author": 1670,
      "aff": 1671,
      "fem": 1672,
      "led": 1673,
      "toward": 1674,
      "why": 1675,
      "crit": 1676,
      "level": 1677,
      "among": 1678,
      "##umn": 1679,
      "further": 1680,
      "common": 1681,
      "cam": 1682,
      "mur": 1683,
      "fun": 1684,
      "ten": 1685,
      "##king": 1686,
      "lim": 1687,
      "cover": 1688,
      "##side": 1689,
      "young": 1690,
      "##rew": 1691,
      "lo": 1692,
      "22": 1693,
      "23": 1694,
      "##oint": 1695,
      "sout": 1696,
      "social": 1697,
      "##istr": 1698,
      "##acter": 1699,
      "2000": 1700,
      "##ization": 1701,
      "sett": 1702,
      "tot": 1703,
      "rich": 1704,
      "dam": 1705,
      "##hel": 1706,
      "development": 1707,
      "##ality": 1708,
      "sev": 1709,
      "sit": 1710,
      "union": 1711,
      "bill": 1712,
      "di": 1713,
      "royal": 1714,
      "story": 1715,
      "late": 1716,
      "chang": 1717,
      "lou": 1718,
      "constr": 1719,
      "week": 1720,
      "##na": 1721,
      "nav": 1722,
      "dev": 1723,
      "##itor": 1724,
      "uk": 1725,
      "186": 1726,
      "base": 1727,
      "research": 1728,
      "half": 1729,
      "##ively": 1730,
      "perform": 1731,
      "##lin": 1732,
      "director": 1733,
      "toget": 1734,
      "together": 1735,
      "mot": 1736,
      "trad": 1737,
      "republ": 1738,
      "free": 1739,
      "having": 1740,
      "summer": 1741,
      "fire": 1742,
      "##af": 1743,
      "ren": 1744,
      "##ald": 1745,
      "saw": 1746,
      "##ting": 1747,
      "language": 1748,
      "god": 1749,
      "office": 1750,
      "according": 1751,
      "sel": 1752,
      "mc": 1753,
      "human": 1754,
      "##ien": 1755,
      "epis": 1756,
      "attack": 1757,
      "inform": 1758,
      "fall": 1759,
      "sold": 1760,
      "full": 1761,
      "187": 1762,
      "##iod": 1763,
      "announ": 1764,
      "##ops": 1765,
      "lat": 1766,
      "mass": 1767,
      "##ument": 1768,
      "##par": 1769,
      "include": 1770,
      "##irc": 1771,
      "##esh": 1772,
      "cer": 1773,
      "community": 1774,
      "broad": 1775,
      "deaths": 1776,
      "2003": 1777,
      "original": 1778,
      "acr": 1779,
      "je": 1780,
      "described": 1781,
      "prim": 1782,
      "wall": 1783,
      "video": 1784,
      "himself": 1785,
      "jud": 1786,
      "jack": 1787,
      "tur": 1788,
      "voice": 1789,
      "##itten": 1790,
      "england": 1791,
      "behind": 1792,
      "calif": 1793,
      "surv": 1794,
      "wanted": 1795,
      "turned": 1796,
      "##ming": 1797,
      "included": 1798,
      "californ": 1799,
      "roman": 1800,
      "##ico": 1801,
      "political": 1802,
      "##ably": 1803,
      "period": 1804,
      "live": 1805,
      "##ky": 1806,
      "muse": 1807,
      "australia": 1808,
      "##ground": 1809,
      "lost": 1810,
      "western": 1811,
      "civ": 1812,
      "import": 1813,
      "oh": 1814,
      "green": 1815,
      "james": 1816,
      "seem": 1817,
      "california": 1818,
      "##ges": 1819,
      "activ": 1820,
      "knew": 1821,
      "opened": 1822,
      "26": 1823,
      "cat": 1824,
      "intr": 1825,
      "mean": 1826,
      "days": 1827,
      "given": 1828,
      "##ned": 1829,
      "often": 1830,
      "100": 1831,
      "##line": 1832,
      "incre": 1833,
      "hot": 1834,
      "econom": 1835,
      "ur": 1836,
      "2001": 1837,
      "2002": 1838,
      "election": 1839,
      "##aken": 1840,
      "den": 1841,
      "sent": 1842,
      "across": 1843,
      "hands": 1844,
      "sam": 1845,
      "must": 1846,
      "##tt": 1847,
      "felt": 1848,
      "cas": 1849,
      "radio": 1850,
      "force": 1851,
      "##wer": 1852,
      "department": 1853,
      "bor": 1854,
      "allow": 1855,
      "##ius": 1856,
      "test": 1857,
      "dark": 1858,
      "wood": 1859,
      "##ament": 1860,
      "arg": 1861,
      "fight": 1862,
      ".,": 1863,
      "##ka": 1864,
      "mart": 1865,
      "production": 1866,
      "circ": 1867,
      "songs": 1868,
      "27": 1869,
      "##uel": 1870,
      "28": 1871,
      "##rop": 1872,
      "##ances": 1873,
      "thom": 1874,
      "fell": 1875,
      "init": 1876,
      "appro": 1877,
      "grad": 1878,
      "##ael": 1879,
      "step": 1880,
      "keep": 1881,
      "museum": 1882,
      "bg": 1883,
      "##arr": 1884,
      "coll": 1885,
      "mad": 1886,
      "##oved": 1887,
      "##work": 1888,
      "heart": 1889,
      "medal": 1890,
      "##ots": 1891,
      "character": 1892,
      "tom": 1893,
      "##ney": 1894,
      "bal": 1895,
      "believ": 1896,
      "previous": 1897,
      "making": 1898,
      "##color": 1899,
      "society": 1900,
      "control": 1901,
      "records": 1902,
      "cy": 1903,
      "ber": 1904,
      "hor": 1905,
      "sun": 1906,
      "##ither": 1907,
      "written": 1908,
      "bgcolor": 1909,
      "##ha": 1910,
      "ground": 1911,
      "woman": 1912,
      "##ecut": 1913,
      "space": 1914,
      "##ape": 1915,
      "region": 1916,
      "david": 1917,
      "places": 1918,
      "meet": 1919,
      "admin": 1920,
      "##ipt": 1921,
      "site": 1922,
      "france": 1923,
      "george": 1924,
      "paul": 1925,
      "hig": 1926,
      "title": 1927,
      "hy": 1928,
      "##ature": 1929,
      "australian": 1930,
      "indust": 1931,
      "##ibut": 1932,
      "low": 1933,
      "effect": 1934,
      "alm": 1935,
      "produced": 1936,
      "gave": 1937,
      "rout": 1938,
      "##oor": 1939,
      "##eth": 1940,
      "told": 1941,
      "politic": 1942,
      "awards": 1943,
      "refer": 1944,
      "##ays": 1945,
      "##ours": 1946,
      "##dle": 1947,
      "india": 1948,
      "pet": 1949,
      "past": 1950,
      "sour": 1951,
      "professional": 1952,
      "der": 1953,
      "mr": 1954,
      "civil": 1955,
      "##acy": 1956,
      "using": 1957,
      "hill": 1958,
      "board": 1959,
      "##cer": 1960,
      "bed": 1961,
      "##less": 1962,
      "2021": 1963,
      "total": 1964,
      "establish": 1965,
      "heav": 1966,
      "franc": 1967,
      "involv": 1968,
      "ham": 1969,
      "feder": 1970,
      "##dom": 1971,
      "##ising": 1972,
      "lib": 1973,
      "##ened": 1974,
      "##ze": 1975,
      "become": 1976,
      "##emb": 1977,
      "process": 1978,
      "pan": 1979,
      "role": 1980,
      "railway": 1981,
      "los": 1982,
      "secret": 1983,
      "mult": 1984,
      "trav": 1985,
      "struct": 1986,
      "health": 1987,
      "less": 1988,
      "worked": 1989,
      "million": 1990,
      "gun": 1991,
      "european": 1992,
      "##go": 1993,
      "really": 1994,
      "interest": 1995,
      "##lu": 1996,
      "priv": 1997,
      "might": 1998,
      "##ru": 1999,
      "##ocr": 2000,
      "##li": 2001,
      "##field": 2002,
      "##empt": 2003,
      "married": 2004,
      "pap": 2005,
      "chair": 2006,
      "services": 2007,
      "review": 2008,
      "##epend": 2009,
      "1999": 2010,
      "invest": 2011,
      "debut": 2012,
      "plan": 2013,
      "29": 2014,
      "##ilar": 2015,
      "##used": 2016,
      "robert": 2017,
      "##ogn": 2018,
      "##ship": 2019,
      "##ve": 2020,
      "host": 2021,
      "##rican": 2022,
      "independ": 2023,
      "enough": 2024,
      "##anish": 2025,
      "##omb": 2026,
      "canada": 2027,
      "america": 2028,
      "dest": 2029,
      "##itar": 2030,
      "##ners": 2031,
      "sure": 2032,
      "bad": 2033,
      "##ya": 2034,
      "phys": 2035,
      "flor": 2036,
      "committ": 2037,
      "created": 2038,
      "ran": 2039,
      "ok": 2040,
      "185": 2041,
      "announced": 2042,
      "canadian": 2043,
      "returned": 2044,
      "various": 2045,
      "pract": 2046,
      "##aughter": 2047,
      "##ploy": 2048,
      "seen": 2049,
      "albums": 2050,
      "##iment": 2051,
      "journal": 2052,
      "northern": 2053,
      "anim": 2054,
      "comb": 2055,
      "phot": 2056,
      "##aut": 2057,
      "scre": 2058,
      "continued": 2059,
      "ver": 2060,
      "battle": 2061,
      "others": 2062,
      "##ending": 2063,
      "version": 2064,
      "mel": 2065,
      "31": 2066,
      "police": 2067,
      "##ago": 2068,
      "mind": 2069,
      "books": 2070,
      "##ush": 2071,
      "appoint": 2072,
      "case": 2073,
      "perfor": 2074,
      "introd": 2075,
      "##cast": 2076,
      "tv": 2077,
      "science": 2078,
      "##ference": 2079,
      "mountain": 2080,
      "position": 2081,
      "administr": 2082,
      "commission": 2083,
      "##amb": 2084,
      "alex": 2085,
      "hen": 2086,
      "view": 2087,
      "##ead": 2088,
      "claim": 2089,
      "modern": 2090,
      "20th": 2091,
      "match": 2092,
      "chief": 2093,
      "performan": 2094,
      "draw": 2095,
      "close": 2096,
      "almost": 2097,
      "##ple": 2098,
      "##ech": 2099,
      "municip": 2100,
      "cop": 2101,
      "##of": 2102,
      "hur": 2103,
      "##aps": 2104,
      "exc": 2105,
      "mont": 2106,
      "tor": 2107,
      "sus": 2108,
      "##ox": 2109,
      "chin": 2110,
      "princ": 2111,
      "##cent": 2112,
      "webs": 2113,
      "fest": 2114,
      "students": 2115,
      "mary": 2116,
      "events": 2117,
      "chap": 2118,
      "news": 2119,
      "1998": 2120,
      "##ville": 2121,
      "du": 2122,
      "pain": 2123,
      "##gar": 2124,
      "##ania": 2125,
      "##iction": 2126,
      "ide": 2127,
      "rac": 2128,
      "enc": 2129,
      "key": 2130,
      "minister": 2131,
      "prem": 2132,
      "similar": 2133,
      "clos": 2134,
      "always": 2135,
      "blood": 2136,
      "defe": 2137,
      "popular": 2138,
      "kar": 2139,
      "better": 2140,
      "##18": 2141,
      "##ories": 2142,
      "##iding": 2143,
      "##oney": 2144,
      "joined": 2145,
      "working": 2146,
      "##cher": 2147,
      "##ena": 2148,
      "mac": 2149,
      "sem": 2150,
      "##ction": 2151,
      "bank": 2152,
      "ru": 2153,
      "et": 2154,
      "information": 2155,
      "wife": 2156,
      "##iff": 2157,
      "##arch": 2158,
      "##reek": 2159,
      "voc": 2160,
      "##ca": 2161,
      "##xim": 2162,
      "liter": 2163,
      "##ological": 2164,
      "##ators": 2165,
      "grow": 2166,
      "rob": 2167,
      "ple": 2168,
      "things": 2169,
      "southern": 2170,
      "##ket": 2171,
      "tex": 2172,
      "partic": 2173,
      "race": 2174,
      "##ivid": 2175,
      "mex": 2176,
      "background": 2177,
      "blue": 2178,
      "##bor": 2179,
      "hair": 2180,
      "pul": 2181,
      "text": 2182,
      "quest": 2183,
      "hous": 2184,
      "strong": 2185,
      "germany": 2186,
      "kingdom": 2187,
      "50": 2188,
      "hit": 2189,
      "express": 2190,
      "angel": 2191,
      "relations": 2192,
      "alumn": 2193,
      "##imin": 2194,
      "soft": 2195,
      "ball": 2196,
      "examp": 2197,
      "##stand": 2198,
      "sex": 2199,
      "jose": 2200,
      "##nd": 2201,
      "nothing": 2202,
      "doc": 2203,
      "1996": 2204,
      "offer": 2205,
      "inside": 2206,
      "coach": 2207,
      "fig": 2208,
      "##itect": 2209,
      "begin": 2210,
      "fund": 2211,
      "sports": 2212,
      "##ids": 2213,
      "tou": 2214,
      "##aves": 2215,
      "dut": 2216,
      "jew": 2217,
      "##ump": 2218,
      "hap": 2219,
      "fif": 2220,
      "##raft": 2221,
      "teams": 2222,
      "fa": 2223,
      "nec": 2224,
      "assist": 2225,
      "architect": 2226,
      "give": 2227,
      "buildings": 2228,
      "impr": 2229,
      "attempt": 2230,
      "least": 2231,
      "##olic": 2232,
      "1997": 2233,
      "##ption": 2234,
      "wil": 2235,
      "produc": 2236,
      "##burg": 2237,
      "cost": 2238,
      "wrote": 2239,
      "japanese": 2240,
      "ident": 2241,
      "gar": 2242,
      "brown": 2243,
      "soon": 2244,
      "eight": 2245,
      "##aught": 2246,
      "website": 2247,
      "##ount": 2248,
      "alumni": 2249,
      "writ": 2250,
      "middle": 2251,
      "##ready": 2252,
      "italian": 2253,
      "corn": 2254,
      "release": 2255,
      "##ele": 2256,
      "ath": 2257,
      "individ": 2258,
      "democr": 2259,
      "lake": 2260,
      "##aft": 2261,
      "##utes": 2262,
      "##iers": 2263,
      "##ense": 2264,
      "already": 2265,
      "##ida": 2266,
      "##hib": 2267,
      "km": 2268,
      "##olution": 2269,
      "hosp": 2270,
      "ps": 2271,
      "playing": 2272,
      "##ering": 2273,
      "important": 2274,
      "boy": 2275,
      "##ki": 2276,
      "cut": 2277,
      "schools": 2278,
      "bay": 2279,
      "##itz": 2280,
      "product": 2281,
      "thomas": 2282,
      "ship": 2283,
      "caus": 2284,
      "washing": 2285,
      "##bed": 2286,
      "cho": 2287,
      "taken": 2288,
      "##imes": 2289,
      "founded": 2290,
      "particip": 2291,
      "compos": 2292,
      "##wood": 2293,
      "anything": 2294,
      "scott": 2295,
      "appeared": 2296,
      "aver": 2297,
      "hu": 2298,
      "china": 2299,
      "constit": 2300,
      "##erc": 2301,
      "##mar": 2302,
      "upon": 2303,
      "##ams": 2304,
      "coast": 2305,
      "scr": 2306,
      "184": 2307,
      "african": 2308,
      "quick": 2309,
      "##ij": 2310,
      "##to": 2311,
      "=#": 2312,
      "personal": 2313,
      "artist": 2314,
      "cath": 2315,
      "media": 2316,
      "##uce": 2317,
      "appl": 2318,
      "mix": 2319,
      "1995": 2320,
      "elected": 2321,
      "reached": 2322,
      "magaz": 2323,
      "parl": 2324,
      "footballers": 2325,
      "artic": 2326,
      "chart": 2327,
      "republic": 2328,
      "able": 2329,
      "thing": 2330,
      "##iec": 2331,
      "rh": 2332,
      "deep": 2333,
      "hun": 2334,
      "stage": 2335,
      "recogn": 2336,
      "notes": 2337,
      "##itch": 2338,
      "historic": 2339,
      "mic": 2340,
      "##sequ": 2341,
      "##aged": 2342,
      "##cover": 2343,
      "aud": 2344,
      "dead": 2345,
      "province": 2346,
      "##ili": 2347,
      "esp": 2348,
      "##iled": 2349,
      "promot": 2350,
      "wat": 2351,
      "##gy": 2352,
      "stay": 2353,
      "basket": 2354,
      "ho": 2355,
      "michael": 2356,
      "##oming": 2357,
      "##head": 2358,
      "instead": 2359,
      "1994": 2360,
      "considered": 2361,
      "color": 2362,
      "desp": 2363,
      "washington": 2364,
      "course": 2365,
      "1992": 2366,
      "russian": 2367,
      "birth": 2368,
      "foc": 2369,
      "happen": 2370,
      "theat": 2371,
      "##uation": 2372,
      "##igr": 2373,
      "transport": 2374,
      "##here": 2375,
      "fail": 2376,
      "40": 2377,
      "arts": 2378,
      "yes": 2379,
      "lear": 2380,
      "rul": 2381,
      "cand": 2382,
      "##isc": 2383,
      "data": 2384,
      "recorded": 2385,
      "points": 2386,
      "##idence": 2387,
      "##lement": 2388,
      "either": 2389,
      "ben": 2390,
      "tradition": 2391,
      "ol": 2392,
      "##ishing": 2393,
      "tourn": 2394,
      "seven": 2395,
      "charles": 2396,
      "gall": 2397,
      "##ength": 2398,
      "viol": 2399,
      "obs": 2400,
      "followed": 2401,
      "##ves": 2402,
      "moment": 2403,
      "athlet": 2404,
      "fore": 2405,
      "guitar": 2406,
      "libr": 2407,
      "shar": 2408,
      "done": 2409,
      "daughter": 2410,
      "sea": 2411,
      "looking": 2412,
      "##odes": 2413,
      "prob": 2414,
      "paint": 2415,
      "\")": 2416,
      "earl": 2417,
      "directed": 2418,
      "particular": 2419,
      "##hem": 2420,
      "laun": 2421,
      "agre": 2422,
      "proble": 2423,
      "pen": 2424,
      "groups": 2425,
      "mater": 2426,
      "reason": 2427,
      "van": 2428,
      "institute": 2429,
      "cell": 2430,
      "areas": 2431,
      "##erson": 2432,
      "pot": 2433,
      "parliam": 2434,
      "academy": 2435,
      "arms": 2436,
      "##oul": 2437,
      "##airs": 2438,
      "tax": 2439,
      "influ": 2440,
      "pun": 2441,
      "##reg": 2442,
      "table": 2443,
      "##urs": 2444,
      "relig": 2445,
      "reb": 2446,
      "##ari": 2447,
      "bul": 2448,
      "ha": 2449,
      "break": 2450,
      "instr": 2451,
      "aw": 2452,
      "eastern": 2453,
      "killed": 2454,
      "clear": 2455,
      "deg": 2456,
      "##ification": 2457,
      "sir": 2458,
      "novel": 2459,
      "forces": 2460,
      "##ucted": 2461,
      "##oon": 2462,
      "female": 2463,
      "parliament": 2464,
      "execut": 2465,
      "companies": 2466,
      "##berg": 2467,
      "exist": 2468,
      "christian": 2469,
      "words": 2470,
      "1993": 2471,
      "frank": 2472,
      "results": 2473,
      "taking": 2474,
      "change": 2475,
      "pay": 2476,
      "adm": 2477,
      "##overs": 2478,
      "treat": 2479,
      "##ex": 2480,
      "louis": 2481,
      "kind": 2482,
      "env": 2483,
      "outside": 2484,
      "##ano": 2485,
      "hers": 2486,
      "##nes": 2487,
      "market": 2488,
      "##aign": 2489,
      "completed": 2490,
      "ul": 2491,
      "sand": 2492,
      "##isl": 2493,
      "box": 2494,
      "hom": 2495,
      "qual": 2496,
      "lower": 2497,
      "peter": 2498,
      "##itive": 2499,
      "tar": 2500,
      "victor": 2501,
      "##ala": 2502,
      "centre": 2503,
      "basketball": 2504,
      "type": 2505,
      "##mon": 2506,
      "virgin": 2507,
      "fut": 2508,
      "signed": 2509,
      "food": 2510,
      "entire": 2511,
      "##ift": 2512,
      "current": 2513,
      "##iving": 2514,
      "fort": 2515,
      "dig": 2516,
      "episode": 2517,
      "##cle": 2518,
      "##olf": 2519,
      "bow": 2520,
      "bab": 2521,
      "today": 2522,
      "rank": 2523,
      "term": 2524,
      "1990": 2525,
      "training": 2526,
      "appointed": 2527,
      "deal": 2528,
      "##anced": 2529,
      "##ements": 2530,
      "meth": 2531,
      "##rica": 2532,
      "closed": 2533,
      "lu": 2534,
      "##craft": 2535,
      "fle": 2536,
      "months": 2537,
      "kr": 2538,
      "##nel": 2539,
      "formed": 2540,
      "ach": 2541,
      "ans": 2542,
      "##ban": 2543,
      "campaign": 2544,
      "construction": 2545,
      "finally": 2546,
      "contract": 2547,
      "paris": 2548,
      "1991": 2549,
      "##tered": 2550,
      "bud": 2551,
      "##gress": 2552,
      "##ique": 2553,
      "esc": 2554,
      "fing": 2555,
      "os": 2556,
      "##etting": 2557,
      "above": 2558,
      "employ": 2559,
      "carol": 2560,
      "hung": 2561,
      "committee": 2562,
      "hospital": 2563,
      "penn": 2564,
      "olympics": 2565,
      "colon": 2566,
      "festival": 2567,
      "##ke": 2568,
      "lik": 2569,
      "##ga": 2570,
      "swe": 2571,
      "##anch": 2572,
      "route": 2573,
      "hop": 2574,
      "card": 2575,
      "developed": 2576,
      "##ny": 2577,
      "hear": 2578,
      "##ander": 2579,
      "private": 2580,
      "183": 2581,
      "##ker": 2582,
      "pick": 2583,
      "##aker": 2584,
      "finished": 2585,
      "sle": 2586,
      "avail": 2587,
      "doct": 2588,
      "chinese": 2589,
      "##lo": 2590,
      "roll": 2591,
      "mouth": 2592,
      "spanish": 2593,
      "interv": 2594,
      "dre": 2595,
      "cens": 2596,
      "richard": 2597,
      "access": 2598,
      "originally": 2599,
      "performance": 2600,
      "entr": 2601,
      "despite": 2602,
      "##wr": 2603,
      "artists": 2604,
      "##fl": 2605,
      "vot": 2606,
      "register": 2607,
      "forward": 2608,
      "forest": 2609,
      "kh": 2610,
      "##ude": 2611,
      "##ota": 2612,
      "##ume": 2613,
      "comput": 2614,
      "rights": 2615,
      "move": 2616,
      "##ona": 2617,
      "plant": 2618,
      "network": 2619,
      "someone": 2620,
      "slow": 2621,
      "squad": 2622,
      "lord": 2623,
      "yet": 2624,
      "henry": 2625,
      "regular": 2626,
      "master": 2627,
      "##ensive": 2628,
      "##band": 2629,
      "separ": 2630,
      "shot": 2631,
      "model": 2632,
      "anc": 2633,
      "leave": 2634,
      "gradu": 2635,
      "eth": 2636,
      "burn": 2637,
      "saint": 2638,
      "study": 2639,
      "sym": 2640,
      "watch": 2641,
      "reported": 2642,
      "op": 2643,
      "##ergy": 2644,
      "##my": 2645,
      "##uf": 2646,
      "cit": 2647,
      "africa": 2648,
      "##ella": 2649,
      "sug": 2650,
      "##ees": 2651,
      "##ta": 2652,
      "##iple": 2653,
      "discover": 2654,
      "##ston": 2655,
      "##off": 2656,
      "##ula": 2657,
      "hell": 2658,
      "##enth": 2659,
      "1989": 2660,
      "earth": 2661,
      "##iron": 2662,
      "studies": 2663,
      "1988": 2664,
      "proper": 2665,
      "##ipped": 2666,
      "ven": 2667,
      "action": 2668,
      "anal": 2669,
      "texas": 2670,
      "##ba": 2671,
      "example": 2672,
      "fer": 2673,
      "assemb": 2674,
      "##uit": 2675,
      "heard": 2676,
      "tournament": 2677,
      "chann": 2678,
      "zeal": 2679,
      "##bc": 2680,
      "floor": 2681,
      "trying": 2682,
      "emp": 2683,
      "##wor": 2684,
      "die": 2685,
      "sud": 2686,
      "drop": 2687,
      "gard": 2688,
      "##ceed": 2689,
      "lay": 2690,
      "##idae": 2691,
      "brought": 2692,
      "ye": 2693,
      "everything": 2694,
      "aircraft": 2695,
      "##anger": 2696,
      "staff": 2697,
      "medical": 2698,
      "word": 2699,
      "##ii": 2700,
      "championships": 2701,
      "sar": 2702,
      "##ication": 2703,
      "professor": 2704,
      "eventually": 2705,
      "fav": 2706,
      "##icket": 2707,
      "##sel": 2708,
      "smith": 2709,
      "kore": 2710,
      "##over": 2711,
      "catholic": 2712,
      "##edy": 2713,
      "attr": 2714,
      "liber": 2715,
      "maybe": 2716,
      "natural": 2717,
      "polic": 2718,
      "reserv": 2719,
      "mir": 2720,
      "stations": 2721,
      "bit": 2722,
      "transl": 2723,
      "money": 2724,
      "average": 2725,
      "federal": 2726,
      "ox": 2727,
      "luc": 2728,
      "##ises": 2729,
      "material": 2730,
      "running": 2731,
      "##uth": 2732,
      "ire": 2733,
      "##ita": 2734,
      ".)": 2735,
      "jer": 2736,
      "##ination": 2737,
      "captain": 2738,
      "##acher": 2739,
      "zealand": 2740,
      "rather": 2741,
      "goal": 2742,
      "ce": 2743,
      "wid": 2744,
      "tried": 2745,
      "clim": 2746,
      "capt": 2747,
      "##aries": 2748,
      "##omm": 2749,
      "features": 2750,
      "certain": 2751,
      "available": 2752,
      "decided": 2753,
      "##asc": 2754,
      "else": 2755,
      "lot": 2756,
      "throughout": 2757,
      "##fully": 2758,
      "acqu": 2759,
      "added": 2760,
      "##medi": 2761,
      "##dr": 2762,
      "matt": 2763,
      "##ym": 2764,
      "feet": 2765,
      "##ych": 2766,
      "culture": 2767,
      "broadcast": 2768,
      "scient": 2769,
      "##gn": 2770,
      "lie": 2771,
      "sant": 2772,
      "environ": 2773,
      "suggest": 2774,
      "hus": 2775,
      "ireland": 2776,
      "##icated": 2777,
      "francis": 2778,
      "mos": 2779,
      "range": 2780,
      "section": 2781,
      "conference": 2782,
      "##apt": 2783,
      "writers": 2784,
      "magazine": 2785,
      "baseball": 2786,
      "##ateg": 2787,
      "chic": 2788,
      "iv": 2789,
      "quar": 2790,
      "##ja": 2791,
      "remained": 2792,
      "breath": 2793,
      "movement": 2794,
      "##10": 2795,
      "##ded": 2796,
      "swed": 2797,
      "coming": 2798,
      "##atory": 2799,
      "singles": 2800,
      "##atives": 2801,
      "fly": 2802,
      "1987": 2803,
      "##men": 2804,
      "census": 2805,
      "library": 2806,
      "musical": 2807,
      "method": 2808,
      "bat": 2809,
      "norm": 2810,
      "technology": 2811,
      "##ential": 2812,
      "plann": 2813,
      "##ini": 2814,
      "loss": 2815,
      "##pre": 2816,
      "officer": 2817,
      "minutes": 2818,
      "inn": 2819,
      "actress": 2820,
      "pict": 2821,
      "nod": 2822,
      "conserv": 2823,
      "wild": 2824,
      "accept": 2825,
      "##ura": 2826,
      "##apped": 2827,
      "usually": 2828,
      "bish": 2829,
      "##ck": 2830,
      "needed": 2831,
      "leading": 2832,
      "log": 2833,
      "guard": 2834,
      "imm": 2835,
      "1986": 2836,
      "bridge": 2837,
      "capital": 2838,
      "seat": 2839,
      "fair": 2840,
      "friends": 2841,
      "governor": 2842,
      "##ases": 2843,
      "##action": 2844,
      "##oviet": 2845,
      "decl": 2846,
      "fourth": 2847,
      "legisl": 2848,
      "##itted": 2849,
      "doing": 2850,
      "kiss": 2851,
      "##omp": 2852,
      "plat": 2853,
      "independent": 2854,
      "##de": 2855,
      "morn": 2856,
      "##hold": 2857,
      "##aching": 2858,
      "##elled": 2859,
      "##9e": 2860,
      "##urity": 2861,
      "performed": 2862,
      "self": 2863,
      "peak": 2864,
      "##roy": 2865,
      "##itting": 2866,
      "1984": 2867,
      "##rael": 2868,
      "abs": 2869,
      "##fect": 2870,
      "singer": 2871,
      "##hood": 2872,
      "says": 2873,
      "sor": 2874,
      "designed": 2875,
      "##ability": 2876,
      "##lands": 2877,
      "theatre": 2878,
      "##ada": 2879,
      "respons": 2880,
      "inj": 2881,
      "probably": 2882,
      "currently": 2883,
      "jul": 2884,
      "##osh": 2885,
      "placed": 2886,
      "senior": 2887,
      "lif": 2888,
      "row": 2889,
      "##za": 2890,
      "35": 2891,
      "##ado": 2892,
      "rug": 2893,
      "silver": 2894,
      "dom": 2895,
      "##ilities": 2896,
      "shows": 2897,
      "cab": 2898,
      "insp": 2899,
      "neg": 2900,
      "thre": 2901,
      "studio": 2902,
      "brand": 2903,
      "connect": 2904,
      "):": 2905,
      "management": 2906,
      "turk": 2907,
      "competition": 2908,
      "gh": 2909,
      "ice": 2910,
      "leaders": 2911,
      "deter": 2912,
      "possible": 2913,
      "##istan": 2914,
      "future": 2915,
      "sister": 2916,
      "1985": 2917,
      "##eks": 2918,
      "poet": 2919,
      "foreign": 2920,
      "ord": 2921,
      "trust": 2922,
      "except": 2923,
      "sometimes": 2924,
      "##17": 2925,
      "##ugg": 2926,
      "congress": 2927,
      "speed": 2928,
      "##ested": 2929,
      "pac": 2930,
      "##istry": 2931,
      "includes": 2932,
      "reading": 2933,
      "stone": 2934,
      "talk": 2935,
      "towards": 2936,
      "##enty": 2937,
      "soviet": 2938,
      "dar": 2939,
      "braz": 2940,
      "document": 2941,
      "politician": 2942,
      "##asing": 2943,
      "stood": 2944,
      "leader": 2945,
      "idea": 2946,
      "related": 2947,
      "hours": 2948,
      "##era": 2949,
      "mess": 2950,
      "1980": 2951,
      "##ights": 2952,
      "georg": 2953,
      "subsequ": 2954,
      "mission": 2955,
      "##riate": 2956,
      "mach": 2957,
      "ban": 2958,
      "piec": 2959,
      "israel": 2960,
      "##iation": 2961,
      "1st": 2962,
      "##ockey": 2963,
      "trib": 2964,
      "involved": 2965,
      "olympic": 2966,
      "collection": 2967,
      "happ": 2968,
      "largest": 2969,
      "navy": 2970,
      "listed": 2971,
      "##ola": 2972,
      "##22": 2973,
      "energy": 2974,
      "exhib": 2975,
      "wide": 2976,
      "##idents": 2977,
      "achiev": 2978,
      "month": 2979,
      "travel": 2980,
      "prison": 2981,
      "##uff": 2982,
      "environment": 2983,
      "nomin": 2984,
      "##ores": 2985,
      "touch": 2986,
      "neigh": 2987,
      "ros": 2988,
      "##elling": 2989,
      ",\"": 2990,
      "writer": 2991,
      "##agon": 2992,
      "##aches": 2993,
      "pulled": 2994,
      "anti": 2995,
      "##aur": 2996,
      "prior": 2997,
      "##play": 2998,
      "remember": 2999,
      "understand": 3000,
      "##uke": 3001,
      "##ette": 3002,
      "subject": 3003,
      "##ray": 3004,
      "##ificant": 3005,
      "respect": 3006,
      "missing": 3007,
      "##back": 3008,
      "edition": 3009,
      "virginia": 3010,
      "morning": 3011,
      "##enced": 3012,
      "heavy": 3013,
      "scot": 3014,
      "queen": 3015,
      "famil": 3016,
      "21st": 3017,
      "grant": 3018,
      "beginning": 3019,
      "##ios": 3020,
      "chicago": 3021,
      "primary": 3022,
      "##ades": 3023,
      "ov": 3024,
      "object": 3025,
      "1983": 3026,
      "atl": 3027,
      "mexico": 3028,
      "candid": 3029,
      "tenn": 3030,
      "valley": 3031,
      "size": 3032,
      "##ications": 3033,
      "bring": 3034,
      "organization": 3035,
      "narr": 3036,
      "spir": 3037,
      "airport": 3038,
      "investig": 3039,
      "beaut": 3040,
      "chall": 3041,
      "gal": 3042,
      "stev": 3043,
      "changed": 3044,
      "significant": 3045,
      "tun": 3046,
      "assembly": 3047,
      "##yan": 3048,
      "##ends": 3049,
      "bene": 3050,
      "surf": 3051,
      "beg": 3052,
      "featured": 3053,
      "systems": 3054,
      "##ole": 3055,
      "establishments": 3056,
      "winning": 3057,
      "awarded": 3058,
      "##igan": 3059,
      "actor": 3060,
      "herself": 3061,
      "edward": 3062,
      "seemed": 3063,
      "writing": 3064,
      "susp": 3065,
      "1982": 3066,
      "minor": 3067,
      "transfer": 3068,
      "wonder": 3069,
      "##row": 3070,
      "brazil": 3071,
      "pil": 3072,
      "drum": 3073,
      "espec": 3074,
      "##16": 3075,
      "introduced": 3076,
      "##ushed": 3077,
      "##ining": 3078,
      "security": 3079,
      "rap": 3080,
      "screen": 3081,
      "date": 3082,
      "##la": 3083,
      "od": 3084,
      "meas": 3085,
      "##ein": 3086,
      "45": 3087,
      "below": 3088,
      "gas": 3089,
      "sav": 3090,
      "quickly": 3091,
      "fill": 3092,
      "consist": 3093,
      "italy": 3094,
      "cred": 3095,
      "commerc": 3096,
      "diff": 3097,
      "question": 3098,
      "relationship": 3099,
      "answer": 3100,
      "##15": 3101,
      "honor": 3102,
      "count": 3103,
      "##ales": 3104,
      "##oat": 3105,
      "especially": 3106,
      "replaced": 3107,
      "schol": 3108,
      "trade": 3109,
      "effort": 3110,
      "observ": 3111,
      "families": 3112,
      "critic": 3113,
      "corpor": 3114,
      "coup": 3115,
      "eye": 3116,
      "countries": 3117,
      "whole": 3118,
      "mount": 3119,
      "standard": 3120,
      "1979": 3121,
      "##ris": 3122,
      "degree": 3123,
      "19th": 3124,
      "##rd": 3125,
      "irish": 3126,
      "##oma": 3127,
      "##well": 3128,
      "psych": 3129,
      "notable": 3130,
      "lived": 3131,
      "##kn": 3132,
      "occup": 3133,
      "pred": 3134,
      "glob": 3135,
      "industry": 3136,
      "jim": 3137,
      "amb": 3138,
      "##ask": 3139,
      "##12": 3140,
      "domin": 3141,
      "##oken": 3142,
      "shr": 3143,
      "martin": 3144,
      "##ites": 3145,
      "extr": 3146,
      "regional": 3147,
      "##tained": 3148,
      "vocals": 3149,
      "bes": 3150,
      "thus": 3151,
      "longer": 3152,
      "immedi": 3153,
      "##igned": 3154,
      "##ffer": 3155,
      "fine": 3156,
      "drama": 3157,
      "##antic": 3158,
      "##bb": 3159,
      "historical": 3160,
      "##rain": 3161,
      "stra": 3162,
      "##olk": 3163,
      "32": 3164,
      "spring": 3165,
      "via": 3166,
      "##room": 3167,
      "empire": 3168,
      "higher": 3169,
      "1972": 3170,
      "und": 3171,
      "hockey": 3172,
      ".'": 3173,
      "stated": 3174,
      "beat": 3175,
      "##lam": 3176,
      "joseph": 3177,
      "unit": 3178,
      "pack": 3179,
      "train": 3180,
      "producer": 3181,
      "alone": 3182,
      "##ulty": 3183,
      "##iana": 3184,
      "units": 3185,
      "smile": 3186,
      "1976": 3187,
      "##uz": 3188,
      "getting": 3189,
      "organiz": 3190,
      "rose": 3191,
      "##istics": 3192,
      "##acters": 3193,
      "rugby": 3194,
      "fc": 3195,
      "characters": 3196,
      "occur": 3197,
      "quarter": 3198,
      "spent": 3199,
      "##west": 3200,
      "##ophy": 3201,
      "bass": 3202,
      "manager": 3203,
      "leaving": 3204,
      "native": 3205,
      "shoot": 3206,
      "##iences": 3207,
      "##board": 3208,
      "whose": 3209,
      "1981": 3210,
      "scored": 3211,
      "ash": 3212,
      "sort": 3213,
      "kept": 3214,
      "passed": 3215,
      "florida": 3216,
      "wing": 3217,
      "##use": 3218,
      "##ylv": 3219,
      "operations": 3220,
      "means": 3221,
      "elev": 3222,
      "financ": 3223,
      "##pper": 3224,
      "parts": 3225,
      "channel": 3226,
      "1978": 3227,
      "stad": 3228,
      "bell": 3229,
      "##eople": 3230,
      "na": 3231,
      "expat": 3232,
      "##fort": 3233,
      "surr": 3234,
      "##tim": 3235,
      "##oo": 3236,
      "##iano": 3237,
      "##ufact": 3238,
      "provided": 3239,
      "regard": 3240,
      "##tar": 3241,
      "glass": 3242,
      "les": 3243,
      "haw": 3244,
      "previously": 3245,
      "##abor": 3246,
      "columb": 3247,
      "manufact": 3248,
      "oppos": 3249,
      "##hic": 3250,
      "raised": 3251,
      "gone": 3252,
      "girls": 3253,
      "youth": 3254,
      "murder": 3255,
      "##hest": 3256,
      "believe": 3257,
      "tro": 3258,
      "##ocked": 3259,
      "1974": 3260,
      "##essed": 3261,
      "destroy": 3262,
      "##ients": 3263,
      "bott": 3264,
      "skin": 3265,
      "secretary": 3266,
      "myself": 3267,
      "doctor": 3268,
      "il": 3269,
      "prince": 3270,
      "economic": 3271,
      "nick": 3272,
      "arab": 3273,
      "winter": 3274,
      "allowed": 3275,
      "length": 3276,
      "parents": 3277,
      "cele": 3278,
      "contribut": 3279,
      "##ibution": 3280,
      "owned": 3281,
      "apart": 3282,
      "1968": 3283,
      "1975": 3284,
      "newsp": 3285,
      "##ylvania": 3286,
      "decision": 3287,
      "cricket": 3288,
      "sources": 3289,
      "##oring": 3290,
      "newspap": 3291,
      "focus": 3292,
      "patr": 3293,
      "true": 3294,
      "opening": 3295,
      "approxim": 3296,
      "fear": 3297,
      "##14": 3298,
      "angeles": 3299,
      "1970": 3300,
      "earlier": 3301,
      "##ails": 3302,
      "ended": 3303,
      "selected": 3304,
      "commercial": 3305,
      "industr": 3306,
      "##porary": 3307,
      "seasons": 3308,
      "##oe": 3309,
      "doub": 3310,
      "##har": 3311,
      "1977": 3312,
      "vehic": 3313,
      "##ware": 3314,
      "dance": 3315,
      "36": 3316,
      "value": 3317,
      "student": 3318,
      "##rian": 3319,
      "60": 3320,
      "##anda": 3321,
      "##gian": 3322,
      "complete": 3323,
      "##iption": 3324,
      "premier": 3325,
      "##ension": 3326,
      "##ests": 3327,
      "##ias": 3328,
      "greek": 3329,
      "dun": 3330,
      "foundation": 3331,
      "carl": 3332,
      "wales": 3333,
      "##owers": 3334,
      "surround": 3335,
      "mec": 3336,
      "square": 3337,
      "sens": 3338,
      "chem": 3339,
      "try": 3340,
      "gaz": 3341,
      "ba": 3342,
      "names": 3343,
      "da": 3344,
      "itself": 3345,
      "husband": 3346,
      "operation": 3347,
      "##sc": 3348,
      ";\"": 3349,
      "complex": 3350,
      "##13": 3351,
      "cold": 3352,
      "celebr": 3353,
      "nine": 3354,
      "33": 3355,
      "actually": 3356,
      "wear": 3357,
      "fast": 3358,
      "democratic": 3359,
      "individual": 3360,
      "##iger": 3361,
      "cust": 3362,
      "00": 3363,
      "active": 3364,
      "(\"": 3365,
      "page": 3366,
      "mut": 3367,
      "cd": 3368,
      "dog": 3369,
      "1973": 3370,
      "additional": 3371,
      "##eg": 3372,
      "islands": 3373,
      "limited": 3374,
      "500": 3375,
      "spl": 3376,
      "##istic": 3377,
      "paper": 3378,
      "executive": 3379,
      "##irt": 3380,
      "farm": 3381,
      "municipality": 3382,
      "carolina": 3383,
      "plays": 3384,
      "##cy": 3385,
      "##ging": 3386,
      "russia": 3387,
      "penns": 3388,
      "##ening": 3389,
      "##ector": 3390,
      "editor": 3391,
      "ton": 3392,
      "##lor": 3393,
      "dont": 3394,
      "##ria": 3395,
      "ray": 3396,
      "ships": 3397,
      "##inct": 3398,
      "meeting": 3399,
      "##arian": 3400,
      "##abit": 3401,
      "##km": 3402,
      "##oles": 3403,
      "##azz": 3404,
      "##hire": 3405,
      "structure": 3406,
      "saying": 3407,
      "interview": 3408,
      "##ects": 3409,
      "##riage": 3410,
      "ram": 3411,
      "ess": 3412,
      "mine": 3413,
      "##ession": 3414,
      "##orpor": 3415,
      "##ols": 3416,
      "##ipl": 3417,
      "##arily": 3418,
      "##isher": 3419,
      "pull": 3420,
      "pennsylvania": 3421,
      "purch": 3422,
      "##usion": 3423,
      "pret": 3424,
      "walked": 3425,
      "##ims": 3426,
      "note": 3427,
      "##inn": 3428,
      "path": 3429,
      "cultural": 3430,
      "surpr": 3431,
      "##d6": 3432,
      "princip": 3433,
      "moving": 3434,
      "purp": 3435,
      "az": 3436,
      "##iling": 3437,
      "ta": 3438,
      "makes": 3439,
      "teacher": 3440,
      "##ua": 3441,
      "provide": 3442,
      "##200": 3443,
      "##iced": 3444,
      "1969": 3445,
      "##isk": 3446,
      "frequ": 3447,
      "##ping": 3448,
      "1971": 3449,
      "##hi": 3450,
      "##dy": 3451,
      "location": 3452,
      "##oper": 3453,
      "personnel": 3454,
      "1945": 3455,
      "lips": 3456,
      "lee": 3457,
      "rub": 3458,
      "##selves": 3459,
      "##ustr": 3460,
      "lines": 3461,
      "entered": 3462,
      "rural": 3463,
      "memor": 3464,
      "township": 3465,
      "elections": 3466,
      "anth": 3467,
      "sleep": 3468,
      "##ule": 3469,
      "engineering": 3470,
      "ens": 3471,
      "electric": 3472,
      "##uments": 3473,
      "peace": 3474,
      "saf": 3475,
      "legal": 3476,
      "##och": 3477,
      "traditional": 3478,
      "concern": 3479,
      "emerg": 3480,
      "180": 3481,
      "altern": 3482,
      "disp": 3483,
      "dyn": 3484,
      "bon": 3485,
      "weeks": 3486,
      "nearly": 3487,
      "##oz": 3488,
      "rain": 3489,
      "matter": 3490,
      "ut": 3491,
      "runs": 3492,
      "charl": 3493,
      "##ental": 3494,
      "okay": 3495,
      "emb": 3496,
      "guy": 3497,
      "web": 3498,
      "castle": 3499,
      "computer": 3500,
      "##ires": 3501,
      "##ati": 3502,
      "defeated": 3503,
      "lady": 3504,
      "household": 3505,
      "job": 3506,
      "##rect": 3507,
      "##ibility": 3508,
      "dutch": 3509,
      "labor": 3510,
      "1967": 3511,
      "##ding": 3512,
      "spr": 3513,
      "2nd": 3514,
      "hope": 3515,
      "sudden": 3516,
      "numer": 3517,
      "ful": 3518,
      "houses": 3519,
      "##aming": 3520,
      "starting": 3521,
      "philos": 3522,
      "spain": 3523,
      "forced": 3524,
      "hund": 3525,
      "onto": 3526,
      "attended": 3527,
      "happened": 3528,
      "goals": 3529,
      "mah": 3530,
      "mention": 3531,
      "prize": 3532,
      "##heast": 3533,
      "stopped": 3534,
      "regiment": 3535,
      "older": 3536,
      "takes": 3537,
      "##where": 3538,
      "##ror": 3539,
      "bishop": 3540,
      "movie": 3541,
      "bag": 3542,
      "source": 3543,
      "twenty": 3544,
      "chest": 3545,
      "##iel": 3546,
      "##onic": 3547,
      "standing": 3548,
      "##ko": 3549,
      "1964": 3550,
      "##road": 3551,
      "##50": 3552,
      "sched": 3553,
      "##inet": 3554,
      "diffic": 3555,
      "##ero": 3556,
      "philipp": 3557,
      "pak": 3558,
      "34": 3559,
      "revolution": 3560,
      "jewish": 3561,
      "lack": 3562,
      "##ulation": 3563,
      "chapter": 3564,
      "##iant": 3565,
      "##ingu": 3566,
      "##iously": 3567,
      "bound": 3568,
      "successful": 3569,
      "bob": 3570,
      "practice": 3571,
      "##hol": 3572,
      "expatriate": 3573,
      "property": 3574,
      ");": 3575,
      "scottish": 3576,
      "hundred": 3577,
      "brig": 3578,
      "border": 3579,
      "footballer": 3580,
      "stadium": 3581,
      "nature": 3582,
      "whom": 3583,
      "appr": 3584,
      "phone": 3585,
      "genus": 3586,
      "asian": 3587,
      "bron": 3588,
      "cry": 3589,
      "##ersey": 3590,
      "ah": 3591,
      "##onstr": 3592,
      "attention": 3593,
      "annual": 3594,
      "##com": 3595,
      "opt": 3596,
      "suc": 3597,
      "##ques": 3598,
      "jac": 3599,
      "reveal": 3600,
      "##ils": 3601,
      "online": 3602,
      "stars": 3603,
      "##het": 3604,
      "justice": 3605,
      "prime": 3606,
      "issue": 3607,
      "##asion": 3608,
      "stock": 3609,
      "##unt": 3610,
      "administration": 3611,
      "mcc": 3612,
      "cases": 3613,
      "bib": 3614,
      "covered": 3615,
      "dani": 3616,
      "##ansas": 3617,
      "drive": 3618,
      "##bridge": 3619,
      "religious": 3620,
      "##chen": 3621,
      "ak": 3622,
      "ancient": 3623,
      "##itors": 3624,
      "carr": 3625,
      "initially": 3626,
      "ly": 3627,
      "speak": 3628,
      "suffer": 3629,
      "contem": 3630,
      "##ocks": 3631,
      "##iy": 3632,
      "fiction": 3633,
      "policy": 3634,
      "brief": 3635,
      "discuss": 3636,
      "print": 3637,
      "##ously": 3638,
      "##onse": 3639,
      "cant": 3640,
      "cham": 3641,
      "##mond": 3642,
      "issues": 3643,
      "approximately": 3644,
      "##wan": 3645,
      "cities": 3646,
      "1965": 3647,
      "matches": 3648,
      "##cel": 3649,
      "highest": 3650,
      "launched": 3651,
      "demand": 3652,
      "walk": 3653,
      "overall": 3654,
      "##oes": 3655,
      "##oid": 3656,
      "assistant": 3657,
      "##egr": 3658,
      "1966": 3659,
      "rang": 3660,
      "biography": 3661,
      "politicians": 3662,
      "represented": 3663,
      "straight": 3664,
      "unl": 3665,
      "highway": 3666,
      "syn": 3667,
      "hour": 3668,
      "champion": 3669,
      "termin": 3670,
      "wrest": 3671,
      "victory": 3672,
      "##shire": 3673,
      "block": 3674,
      "179": 3675,
      "metal": 3676,
      "1960": 3677,
      "theory": 3678,
      "##ems": 3679,
      "double": 3680,
      "iran": 3681,
      "didnt": 3682,
      "municipal": 3683,
      "associated": 3684,
      "##ef": 3685,
      "meant": 3686,
      "##itation": 3687,
      "survey": 3688,
      "ring": 3689,
      "##read": 3690,
      "##ences": 3691,
      "comedy": 3692,
      "threat": 3693,
      "##ify": 3694,
      "hotel": 3695,
      "##icted": 3696,
      "##more": 3697,
      "gallery": 3698,
      "tracks": 3699,
      "junior": 3700,
      "nodded": 3701,
      "##iga": 3702,
      "##gl": 3703,
      "##ered": 3704,
      "ask": 3705,
      "##teen": 3706,
      "temple": 3707,
      "lic": 3708,
      "din": 3709,
      "upper": 3710,
      "everyone": 3711,
      "concept": 3712,
      "faculty": 3713,
      "##aned": 3714,
      "financial": 3715,
      "##yer": 3716,
      "compl": 3717,
      "weap": 3718,
      "score": 3719,
      "studied": 3720,
      "##ador": 3721,
      "##ugu": 3722,
      "##oud": 3723,
      "bang": 3724,
      "figure": 3725,
      "##leg": 3726,
      "1920": 3727,
      "pacific": 3728,
      "##ira": 3729,
      "generally": 3730,
      "reform": 3731,
      "##inal": 3732,
      "##uals": 3733,
      "##itory": 3734,
      "jersey": 3735,
      "albert": 3736,
      "##ective": 3737,
      "simp": 3738,
      "flight": 3739,
      "##11": 3740,
      "jon": 3741,
      "required": 3742,
      "trial": 3743,
      "crow": 3744,
      "response": 3745,
      "multiple": 3746,
      "##mit": 3747,
      "appearance": 3748,
      "whis": 3749,
      "anyone": 3750,
      "poor": 3751,
      "##enue": 3752,
      "caused": 3753,
      "specific": 3754,
      "entertain": 3755,
      "##icks": 3756,
      "recording": 3757,
      "##ightly": 3758,
      "ohio": 3759,
      "##isions": 3760,
      "article": 3761,
      "mostly": 3762,
      "kid": 3763,
      "noted": 3764,
      "feature": 3765,
      "stories": 3766,
      "holding": 3767,
      "boys": 3768,
      "pu": 3769,
      "pit": 3770,
      "adj": 3771,
      "65": 3772,
      "sense": 3773,
      "##isters": 3774,
      "lives": 3775,
      "kent": 3776,
      "digital": 3777,
      "carry": 3778,
      "corps": 3779,
      "##mark": 3780,
      "feeling": 3781,
      "distance": 3782,
      "commander": 3783,
      "mob": 3784,
      "becoming": 3785,
      "motor": 3786,
      "citiz": 3787,
      "oil": 3788,
      "officers": 3789,
      "yell": 3790,
      "grab": 3791,
      "stan": 3792,
      "##awa": 3793,
      "##iful": 3794,
      "subst": 3795,
      "iii": 3796,
      "ott": 3797,
      "##une": 3798,
      "agric": 3799,
      "themselves": 3800,
      "michigan": 3801,
      "crew": 3802,
      "immediately": 3803,
      "44": 3804,
      "bost": 3805,
      "magn": 3806,
      "kit": 3807,
      "activities": 3808,
      "giving": 3809,
      "nations": 3810,
      "shut": 3811,
      "fingers": 3812,
      "##iles": 3813,
      "rod": 3814,
      "sac": 3815,
      "tam": 3816,
      "mechan": 3817,
      "neck": 3818,
      "scotland": 3819,
      "bey": 3820,
      "##utions": 3821,
      "##ux": 3822,
      "helped": 3823,
      "belong": 3824,
      "store": 3825,
      "draft": 3826,
      "drug": 3827,
      "disapp": 3828,
      "changes": 3829,
      "##izing": 3830,
      "38": 3831,
      "oce": 3832,
      "##aped": 3833,
      "##enge": 3834,
      "imag": 3835,
      "problem": 3836,
      "mayor": 3837,
      "evidence": 3838,
      "bol": 3839,
      "polish": 3840,
      "managed": 3841,
      "wrong": 3842,
      "beach": 3843,
      "search": 3844,
      "adop": 3845,
      "1963": 3846,
      "37": 3847,
      "couple": 3848,
      "golden": 3849,
      "##wa": 3850,
      "sab": 3851,
      "##ila": 3852,
      "exact": 3853,
      "surface": 3854,
      "##speople": 3855,
      "agricult": 3856,
      "1962": 3857,
      "##etts": 3858,
      "categ": 3859,
      "1944": 3860,
      "argent": 3861,
      "rat": 3862,
      "storm": 3863,
      "tree": 3864,
      "offered": 3865,
      "jones": 3866,
      "villages": 3867,
      "##rupt": 3868,
      "iron": 3869,
      "direction": 3870,
      "bomb": 3871,
      "ded": 3872,
      "ready": 3873,
      "##wh": 3874,
      "poland": 3875,
      "trail": 3876,
      "##bon": 3877,
      "brothers": 3878,
      "max": 3879,
      "##any": 3880,
      "fal": 3881,
      "##ez": 3882,
      "experience": 3883,
      "##aly": 3884,
      "exch": 3885,
      "harv": 3886,
      "##gen": 3887,
      "clubs": 3888,
      "ign": 3889,
      "autom": 3890,
      "winner": 3891,
      "182": 3892,
      "custom": 3893,
      "##mm": 3894,
      "literature": 3895,
      "##mann": 3896,
      "mand": 3897,
      "abb": 3898,
      "platform": 3899,
      "whether": 3900,
      "boston": 3901,
      "uses": 3902,
      "britain": 3903,
      "brook": 3904,
      "##achus": 3905,
      "##inois": 3906,
      "convers": 3907,
      "##ss": 3908,
      "code": 3909,
      "chairman": 3910,
      "##rey": 3911,
      "bod": 3912,
      "sportspeople": 3913,
      "terms": 3914,
      "##bury": 3915,
      "ukrain": 3916,
      "anton": 3917,
      "era": 3918,
      "meaning": 3919,
      "carried": 3920,
      "##gu": 3921,
      "##ora": 3922,
      "spirit": 3923,
      "parish": 3924,
      "##iest": 3925,
      "cart": 3926,
      "dim": 3927,
      "sky": 3928,
      "illinois": 3929,
      "medalists": 3930,
      "pier": 3931,
      "##nam": 3932,
      "retired": 3933,
      "##ci": 3934,
      "contains": 3935,
      "numerous": 3936,
      "arrang": 3937,
      "##iance": 3938,
      "programs": 3939,
      "horse": 3940,
      "rog": 3941,
      "collabor": 3942,
      "smiled": 3943,
      "marriage": 3944,
      "actors": 3945,
      "rid": 3946,
      "deput": 3947,
      "towns": 3948,
      "nation": 3949,
      "comment": 3950,
      "fellow": 3951,
      "mis": 3952,
      "winners": 3953,
      "infant": 3954,
      "branch": 3955,
      "mas": 3956,
      "expand": 3957,
      "diss": 3958,
      "caught": 3959,
      "##aka": 3960,
      "##ros": 3961,
      "cub": 3962,
      "temper": 3963,
      "corner": 3964,
      "##house": 3965,
      "georgia": 3966,
      "cann": 3967,
      "tall": 3968,
      "orche": 3969,
      "cook": 3970,
      "edge": 3971,
      "believed": 3972,
      "bern": 3973,
      "cause": 3974,
      "##ela": 3975,
      "##ledge": 3976,
      "asia": 3977,
      "columbia": 3978,
      "passeng": 3979,
      "dise": 3980,
      "arrived": 3981,
      "vice": 3982,
      "increased": 3983,
      "fifth": 3984,
      "medic": 3985,
      "jean": 3986,
      "##uten": 3987,
      "80": 3988,
      "status": 3989,
      "architecture": 3990,
      "dad": 3991,
      "cin": 3992,
      "spread": 3993,
      "fish": 3994,
      "minute": 3995,
      "majority": 3996,
      "1942": 3997,
      "creek": 3998,
      "eliz": 3999,
      "##burgh": 4000,
      "##ault": 4001,
      "sequ": 4002,
      "particularly": 4003,
      "##light": 4004,
      "structures": 4005,
      "massachus": 4006,
      "dan": 4007,
      "comes": 4008,
      "##don": 4009,
      "famous": 4010,
      "baby": 4011,
      "massachusetts": 4012,
      "sad": 4013,
      "joe": 4014,
      "prec": 4015,
      "##bi": 4016,
      "##vert": 4017,
      "reach": 4018,
      "1956": 4019,
      "##kin": 4020,
      "alexander": 4021,
      "yeah": 4022,
      "1961": 4023,
      "##etic": 4024,
      "perfect": 4025,
      "quiet": 4026,
      "williams": 4027,
      "jr": 4028,
      "##ucky": 4029,
      "mike": 4030,
      "organizations": 4031,
      "counter": 4032,
      "racing": 4033,
      "##ali": 4034,
      "1948": 4035,
      "##ibly": 4036,
      "shook": 4037,
      "operated": 4038,
      "##abeth": 4039,
      "subsequently": 4040,
      "##con": 4041,
      "##aya": 4042,
      "tower": 4043,
      "shop": 4044,
      "quite": 4045,
      "attract": 4046,
      "create": 4047,
      "serving": 4048,
      "thinking": 4049,
      "##rid": 4050,
      "##eds": 4051,
      "communities": 4052,
      "1958": 4053,
      "andrew": 4054,
      "cz": 4055,
      "completely": 4056,
      "electron": 4057,
      "sher": 4058,
      "difficult": 4059,
      "estim": 4060,
      "##erse": 4061,
      "##pped": 4062,
      "##ih": 4063,
      "##book": 4064,
      "remain": 4065,
      "wait": 4066,
      "letter": 4067,
      "ministry": 4068,
      "70": 4069,
      "window": 4070,
      "soldiers": 4071,
      "lem": 4072,
      "remains": 4073,
      "1959": 4074,
      "miles": 4075,
      "##ogen": 4076,
      "##ova": 4077,
      "victoria": 4078,
      "weight": 4079,
      "##lad": 4080,
      "memorial": 4081,
      "firm": 4082,
      "failed": 4083,
      "ped": 4084,
      "tan": 4085,
      "beautiful": 4086,
      "determ": 4087,
      "dropped": 4088,
      "volume": 4089,
      "##illa": 4090,
      "##onia": 4091,
      "kick": 4092,
      "global": 4093,
      "plans": 4094,
      "shoulder": 4095,
      "defense": 4096,
      "oxford": 4097,
      "##ji": 4098,
      "kenn": 4099,
      "64": 4100,
      "1943": 4101,
      "rate": 4102,
      "swim": 4103,
      "contact": 4104,
      "##gypt": 4105,
      "##inary": 4106,
      "resour": 4107,
      "##ousand": 4108,
      "las": 4109,
      "academic": 4110,
      "confir": 4111,
      "ken": 4112,
      "income": 4113,
      "percent": 4114,
      "musicians": 4115,
      "islam": 4116,
      "thousand": 4117,
      "function": 4118,
      "von": 4119,
      "cou": 4120,
      "map": 4121,
      "##kins": 4122,
      "latin": 4123,
      "politics": 4124,
      "43": 4125,
      "indic": 4126,
      "freed": 4127,
      "##iny": 4128,
      "scul": 4129,
      "##ograp": 4130,
      "workers": 4131,
      "##aud": 4132,
      "hong": 4133,
      "dail": 4134,
      "##va": 4135,
      "##illy": 4136,
      "progress": 4137,
      "uns": 4138,
      "ago": 4139,
      "favor": 4140,
      "wed": 4141,
      "territory": 4142,
      "##omes": 4143,
      "slowly": 4144,
      "crime": 4145,
      "francisco": 4146,
      "yellow": 4147,
      "##ls": 4148,
      "egypt": 4149,
      "urban": 4150,
      "##ysis": 4151,
      "physical": 4152,
      "1939": 4153,
      "##mas": 4154,
      "likely": 4155,
      "fighting": 4156,
      "jeff": 4157,
      "judge": 4158,
      "shown": 4159,
      "shad": 4160,
      "1940": 4161,
      "##isted": 4162,
      "1957": 4163,
      "##down": 4164,
      "larger": 4165,
      "##stra": 4166,
      "johnson": 4167,
      "##80": 4168,
      "##emic": 4169,
      "claimed": 4170,
      "recent": 4171,
      "element": 4172,
      "kong": 4173,
      "mathem": 4174,
      "42": 4175,
      "1946": 4176,
      "bac": 4177,
      "mort": 4178,
      "soul": 4179,
      "**": 4180,
      "hind": 4181,
      "1950": 4182,
      "cooper": 4183,
      "##arters": 4184,
      "fix": 4185,
      "##ato": 4186,
      "##itude": 4187,
      "grew": 4188,
      "##adel": 4189,
      "jackson": 4190,
      "vac": 4191,
      "beyond": 4192,
      "industrial": 4193,
      "concert": 4194,
      "enj": 4195,
      "sorry": 4196,
      "##itan": 4197,
      "mixed": 4198,
      "##isation": 4199,
      "sund": 4200,
      "impact": 4201,
      "##iang": 4202,
      "1941": 4203,
      "adult": 4204,
      "##ighter": 4205,
      "##astic": 4206,
      "dur": 4207,
      "necess": 4208,
      "bear": 4209,
      "##da": 4210,
      "problems": 4211,
      "imper": 4212,
      "39": 4213,
      "##encies": 4214,
      "vamp": 4215,
      "rand": 4216,
      "cov": 4217,
      "episodes": 4218,
      "1952": 4219,
      "supported": 4220,
      "suff": 4221,
      "opera": 4222,
      "##wards": 4223,
      "syd": 4224,
      "rules": 4225,
      "tear": 4226,
      "whisper": 4227,
      "install": 4228,
      "barb": 4229,
      "ty": 4230,
      "critical": 4231,
      "chance": 4232,
      "##ucle": 4233,
      "reflect": 4234,
      "lieuten": 4235,
      "talking": 4236,
      "nearby": 4237,
      "##umed": 4238,
      "heat": 4239,
      "daniel": 4240,
      "maria": 4241,
      "marine": 4242,
      "##owed": 4243,
      "representatives": 4244,
      "scene": 4245,
      "presented": 4246,
      "joint": 4247,
      "greater": 4248,
      "share": 4249,
      "appears": 4250,
      "nic": 4251,
      "variety": 4252,
      "republican": 4253,
      "plot": 4254,
      "finals": 4255,
      "1955": 4256,
      "address": 4257,
      "sweet": 4258,
      "eld": 4259,
      "supre": 4260,
      "drink": 4261,
      "1947": 4262,
      "directly": 4263,
      "sculpt": 4264,
      "##win": 4265,
      "%)": 4266,
      "extended": 4267,
      "conduct": 4268,
      "marsh": 4269,
      "##antly": 4270,
      "##unk": 4271,
      "##arm": 4272,
      "bh": 4273,
      "piano": 4274,
      "happy": 4275,
      "##ifying": 4276,
      "##orporated": 4277,
      "wo": 4278,
      "campus": 4279,
      "3rd": 4280,
      "contemporary": 4281,
      "90": 4282,
      "jam": 4283,
      "competed": 4284,
      "htt": 4285,
      "remaining": 4286,
      "administrative": 4287,
      "##ancy": 4288,
      "senate": 4289,
      "rule": 4290,
      "protect": 4291,
      "neighbor": 4292,
      "##uries": 4293,
      "latter": 4294,
      "##ables": 4295,
      "##hew": 4296,
      "garden": 4297,
      "traff": 4298,
      "inh": 4299,
      "reception": 4300,
      "##uch": 4301,
      "steel": 4302,
      "##uing": 4303,
      "forms": 4304,
      "promin": 4305,
      "defin": 4306,
      "label": 4307,
      "##ented": 4308,
      "##ns": 4309,
      "account": 4310,
      "earned": 4311,
      "ker": 4312,
      "mit": 4313,
      "mist": 4314,
      "appar": 4315,
      "profile": 4316,
      "solo": 4317,
      "subs": 4318,
      "mountains": 4319,
      "##haps": 4320,
      "soccer": 4321,
      "agreed": 4322,
      "appearances": 4323,
      "windows": 4324,
      "enem": 4325,
      "articles": 4326,
      "newspaper": 4327,
      "hes": 4328,
      "dream": 4329,
      "##aded": 4330,
      "headqu": 4331,
      "laugh": 4332,
      "##orter": 4333,
      "swedish": 4334,
      "advent": 4335,
      "ga": 4336,
      "ts": 4337,
      "emper": 4338,
      "1954": 4339,
      "berlin": 4340,
      "hang": 4341,
      "warm": 4342,
      "perhaps": 4343,
      "47": 4344,
      "org": 4345,
      "##ety": 4346,
      ":#": 4347,
      "49": 4348,
      "waiting": 4349,
      "extre": 4350,
      "wound": 4351,
      "partners": 4352,
      "ib": 4353,
      "strugg": 4354,
      "troops": 4355,
      "coal": 4356,
      "simply": 4357,
      "bbc": 4358,
      "##lict": 4359,
      "distribution": 4360,
      "daily": 4361,
      "ocean": 4362,
      "kil": 4363,
      "kal": 4364,
      "naval": 4365,
      "separate": 4366,
      "preserv": 4367,
      "##ellig": 4368,
      "discovered": 4369,
      "ow": 4370,
      "tay": 4371,
      "1953": 4372,
      "danger": 4373,
      "kir": 4374,
      "1980s": 4375,
      "authority": 4376,
      "##oh": 4377,
      "truth": 4378,
      "expected": 4379,
      "display": 4380,
      "laws": 4381,
      "ultim": 4382,
      "som": 4383,
      "lieutenant": 4384,
      "##cul": 4385,
      "sydney": 4386,
      "entertainment": 4387,
      "products": 4388,
      "pad": 4389,
      "bath": 4390,
      "pair": 4391,
      "squadron": 4392,
      "1949": 4393,
      "##uts": 4394,
      "benef": 4395,
      "vote": 4396,
      "legs": 4397,
      "referred": 4398,
      "acting": 4399,
      "jazz": 4400,
      "software": 4401,
      "image": 4402,
      "##//": 4403,
      "queens": 4404,
      "flag": 4405,
      "descent": 4406,
      "46": 4407,
      "gray": 4408,
      "battal": 4409,
      "poll": 4410,
      "leon": 4411,
      "ther": 4412,
      "##anth": 4413,
      "##uan": 4414,
      "featuring": 4415,
      "##aked": 4416,
      "hurt": 4417,
      "bibli": 4418,
      "cars": 4419,
      "numbers": 4420,
      "recip": 4421,
      "pp": 4422,
      "electr": 4423,
      "##owing": 4424,
      "##stein": 4425,
      "composed": 4426,
      "arth": 4427,
      "trees": 4428,
      "increase": 4429,
      "ww": 4430,
      "asp": 4431,
      "constitu": 4432,
      "##atively": 4433,
      "suddenly": 4434,
      "://": 4435,
      "duke": 4436,
      "lov": 4437,
      "rivers": 4438,
      "description": 4439,
      "jes": 4440,
      "##ters": 4441,
      "nucle": 4442,
      "require": 4443,
      "kim": 4444,
      "rot": 4445,
      "cool": 4446,
      "##oned": 4447,
      "##ills": 4448,
      "elizabeth": 4449,
      "acquired": 4450,
      "enjoy": 4451,
      "unkn": 4452,
      "behav": 4453,
      "marc": 4454,
      "ordered": 4455,
      "proposed": 4456,
      "chris": 4457,
      "##jo": 4458,
      "##entr": 4459,
      "novels": 4460,
      "cav": 4461,
      "lev": 4462,
      "##mont": 4463,
      "watched": 4464,
      "##ologist": 4465,
      "normal": 4466,
      "founder": 4467,
      "baron": 4468,
      "affairs": 4469,
      "gab": 4470,
      "##greg": 4471,
      "parties": 4472,
      "##hr": 4473,
      "exam": 4474,
      "trip": 4475,
      "secondary": 4476,
      "##199": 4477,
      "responsible": 4478,
      "therefore": 4479,
      "protest": 4480,
      "##oster": 4481,
      "sr": 4482,
      "viet": 4483,
      "sciences": 4484,
      "##span": 4485,
      "influence": 4486,
      "177": 4487,
      "##gs": 4488,
      "piece": 4489,
      "hay": 4490,
      "intellig": 4491,
      "astr": 4492,
      "formerly": 4493,
      "75": 4494,
      "crown": 4495,
      "recover": 4496,
      "##una": 4497,
      "join": 4498,
      "48": 4499,
      "##itage": 4500,
      "##30": 4501,
      "continue": 4502,
      "purs": 4503,
      "##oral": 4504,
      "serve": 4505,
      "##ington": 4506,
      "bright": 4507,
      "##acing": 4508,
      "obl": 4509,
      "choice": 4510,
      "estate": 4511,
      "plants": 4512,
      "serb": 4513,
      "planned": 4514,
      "corporation": 4515,
      "merg": 4516,
      "promoted": 4517,
      "maxim": 4518,
      "wars": 4519,
      "shel": 4520,
      "safe": 4521,
      "##zy": 4522,
      "memory": 4523,
      "##can": 4524,
      "snow": 4525,
      "korean": 4526,
      "languages": 4527,
      "1951": 4528,
      "individuals": 4529,
      "repe": 4530,
      "1936": 4531,
      "semi": 4532,
      "lit": 4533,
      "##yt": 4534,
      "kel": 4535,
      "conflict": 4536,
      "prep": 4537,
      "grade": 4538,
      "ka": 4539,
      "reserve": 4540,
      "please": 4541,
      "succeed": 4542,
      "infantry": 4543,
      "magic": 4544,
      "scholars": 4545,
      "machine": 4546,
      "cem": 4547,
      "rome": 4548,
      "unknown": 4549,
      "contest": 4550,
      "illustr": 4551,
      "##onto": 4552,
      "pra": 4553,
      "opport": 4554,
      "##awn": 4555,
      "pretty": 4556,
      "leaves": 4557,
      "mainly": 4558,
      "removed": 4559,
      "##uv": 4560,
      "1970s": 4561,
      "regul": 4562,
      "lock": 4563,
      "catal": 4564,
      "eg": 4565,
      "dress": 4566,
      "##ube": 4567,
      "moon": 4568,
      "opportun": 4569,
      "##agn": 4570,
      "lad": 4571,
      "trou": 4572,
      "agreement": 4573,
      "emperor": 4574,
      "##ipping": 4575,
      "safety": 4576,
      "##lers": 4577,
      "supreme": 4578,
      "##izes": 4579,
      "heritage": 4580,
      "##olled": 4581,
      "retr": 4582,
      "##enna": 4583,
      "charge": 4584,
      "resist": 4585,
      "korea": 4586,
      "##ourne": 4587,
      "conditions": 4588,
      "1990s": 4589,
      "stephen": 4590,
      "##ographer": 4591,
      "classical": 4592,
      "looks": 4593,
      "usa": 4594,
      "expression": 4595,
      "dipl": 4596,
      "nob": 4597,
      "engineer": 4598,
      "55": 4599,
      "positive": 4600,
      "##chester": 4601,
      "populated": 4602,
      "kat": 4603,
      "czech": 4604,
      "restr": 4605,
      "##bing": 4606,
      "goes": 4607,
      "protection": 4608,
      "equip": 4609,
      "dor": 4610,
      "gather": 4611,
      "wheel": 4612,
      "ny": 4613,
      "broke": 4614,
      "drag": 4615,
      "wit": 4616,
      "eag": 4617,
      "##opher": 4618,
      "elements": 4619,
      "initi": 4620,
      "##ika": 4621,
      "\"|": 4622,
      "integr": 4623,
      "lew": 4624,
      "knowledge": 4625,
      "##ima": 4626,
      "sig": 4627,
      "exchange": 4628,
      "target": 4629,
      "initial": 4630,
      "capac": 4631,
      "tight": 4632,
      "fat": 4633,
      "1938": 4634,
      "ron": 4635,
      "diam": 4636,
      "ward": 4637,
      "emot": 4638,
      "##eness": 4639,
      "surn": 4640,
      "52": 4641,
      "##elle": 4642,
      "##bour": 4643,
      "statistics": 4644,
      "deputy": 4645,
      "##bec": 4646,
      "growing": 4647,
      "##mad": 4648,
      "##60": 4649,
      "nether": 4650,
      "##oms": 4651,
      "rab": 4652,
      "cinem": 4653,
      "situation": 4654,
      "cert": 4655,
      "bronze": 4656,
      "effects": 4657,
      "danc": 4658,
      "scen": 4659,
      "##iber": 4660,
      "scientific": 4661,
      "filled": 4662,
      "fresh": 4663,
      "moth": 4664,
      "##iot": 4665,
      "##ici": 4666,
      "178": 4667,
      "settlement": 4668,
      "54": 4669,
      "quality": 4670,
      "fleet": 4671,
      "lt": 4672,
      "fox": 4673,
      "fant": 4674,
      "alongside": 4675,
      "clean": 4676,
      "projects": 4677,
      "abd": 4678,
      "##tery": 4679,
      "suit": 4680,
      "closer": 4681,
      "purpose": 4682,
      "spot": 4683,
      "flat": 4684,
      "##uated": 4685,
      "districts": 4686,
      "none": 4687,
      "mrs": 4688,
      "increasing": 4689,
      "1918": 4690,
      "wolf": 4691,
      "ontar": 4692,
      "provides": 4693,
      "slightly": 4694,
      "issued": 4695,
      "showed": 4696,
      "citizens": 4697,
      "candidate": 4698,
      "graduated": 4699,
      "presence": 4700,
      "aer": 4701,
      "treatment": 4702,
      "thin": 4703,
      "##bre": 4704,
      "##iat": 4705,
      "ell": 4706,
      "##akh": 4707,
      "##otten": 4708,
      "walls": 4709,
      "##9e9": 4710,
      "kur": 4711,
      "e9e": 4712,
      "e9e9e9": 4713,
      "agency": 4714,
      "ontario": 4715,
      "ira": 4716,
      "educational": 4717,
      "broken": 4718,
      "races": 4719,
      "##war": 4720,
      "1937": 4721,
      "greg": 4722,
      "tong": 4723,
      "steve": 4724,
      "technical": 4725,
      "sitting": 4726,
      "documentary": 4727,
      "##ulf": 4728,
      "residents": 4729,
      "holy": 4730,
      "perman": 4731,
      "publications": 4732,
      "symb": 4733,
      "##ropol": 4734,
      "##wide": 4735,
      "sin": 4736,
      "adam": 4737,
      "hug": 4738,
      "flying": 4739,
      "analysis": 4740,
      "railroad": 4741,
      "lies": 4742,
      "##lav": 4743,
      "##eman": 4744,
      "consists": 4745,
      "formation": 4746,
      "americ": 4747,
      "santa": 4748,
      "cambridge": 4749,
      "restaur": 4750,
      "fab": 4751,
      "worth": 4752,
      "revealed": 4753,
      "avenue": 4754,
      "conver": 4755,
      "funct": 4756,
      "charts": 4757,
      "liberal": 4758,
      "crimin": 4759,
      "simon": 4760,
      "toronto": 4761,
      "##adelph": 4762,
      "equipment": 4763,
      "300": 4764,
      "robin": 4765,
      "coff": 4766,
      "##iro": 4767,
      "medicine": 4768,
      "##stone": 4769,
      "##ione": 4770,
      "##rich": 4771,
      "levels": 4772,
      "pressure": 4773,
      "musl": 4774,
      "##mission": 4775,
      "attend": 4776,
      "respond": 4777,
      "##resp": 4778,
      "##aging": 4779,
      "##sen": 4780,
      "##worth": 4781,
      "(),": 4782,
      "smaller": 4783,
      "transferred": 4784,
      "geography": 4785,
      "partner": 4786,
      "intended": 4787,
      "##othes": 4788,
      "exactly": 4789,
      "dial": 4790,
      "ability": 4791,
      "##ensity": 4792,
      "philadelph": 4793,
      "demonstr": 4794,
      "twice": 4795,
      "owners": 4796,
      "housing": 4797,
      "brad": 4798,
      "chamber": 4799,
      "##oman": 4800,
      "bc": 4801,
      "forg": 4802,
      "shortly": 4803,
      "minnes": 4804,
      "mexican": 4805,
      "jur": 4806,
      "vic": 4807,
      "types": 4808,
      "constructed": 4809,
      "controvers": 4810,
      "ahead": 4811,
      "rough": 4812,
      "##athan": 4813,
      "linear": 4814,
      "split": 4815,
      "wisc": 4816,
      "simple": 4817,
      "pakistan": 4818,
      "labour": 4819,
      "sites": 4820,
      "lett": 4821,
      "##aven": 4822,
      "##onsin": 4823,
      "##attle": 4824,
      "philadelphia": 4825,
      "risk": 4826,
      "##oration": 4827,
      "content": 4828,
      "##yth": 4829,
      "younger": 4830,
      "1960s": 4831,
      "ax": 4832,
      "extra": 4833,
      "eat": 4834,
      "minnesota": 4835,
      "growth": 4836,
      "headed": 4837,
      "oak": 4838,
      "improv": 4839,
      "ethn": 4840,
      "officially": 4841,
      "publishing": 4842,
      "alf": 4843,
      "##iser": 4844,
      "picture": 4845,
      "cycl": 4846,
      "pin": 4847,
      "aband": 4848,
      "wisconsin": 4849,
      "cancer": 4850,
      "arthur": 4851,
      "deliver": 4852,
      "cow": 4853,
      "vent": 4854,
      "leadership": 4855,
      "alle": 4856,
      "potential": 4857,
      "##iform": 4858,
      "concentr": 4859,
      "owner": 4860,
      "om": 4861,
      "netherlands": 4862,
      "sexual": 4863,
      "thick": 4864,
      "##onym": 4865,
      "boat": 4866,
      "##pa": 4867,
      "1935": 4868,
      "destroyed": 4869,
      "renamed": 4870,
      "catch": 4871,
      "advanced": 4872,
      "instrument": 4873,
      "##town": 4874,
      "clar": 4875,
      "53": 4876,
      "yard": 4877,
      "ones": 4878,
      "wel": 4879,
      "scar": 4880,
      "orchestra": 4881,
      "folk": 4882,
      "serious": 4883,
      "bottom": 4884,
      "resident": 4885,
      "impress": 4886,
      "##ava": 4887,
      "##rel": 4888,
      "##jan": 4889,
      "facilities": 4890,
      "easy": 4891,
      "approach": 4892,
      "motion": 4893,
      "##iday": 4894,
      "bull": 4895,
      "recognized": 4896,
      "taylor": 4897,
      "sax": 4898,
      "tennis": 4899,
      "kitt": 4900,
      "wilson": 4901,
      "sharp": 4902,
      "finish": 4903,
      "1930": 4904,
      "##hl": 4905,
      "##bl": 4906,
      "paid": 4907,
      "lind": 4908,
      "cass": 4909,
      "##anna": 4910,
      "##bourne": 4911,
      "thank": 4912,
      "challenge": 4913,
      "supposed": 4914,
      "accepted": 4915,
      "internet": 4916,
      "(,": 4917,
      "highly": 4918,
      "1919": 4919,
      "##iring": 4920,
      "57": 4921,
      "stared": 4922,
      "freedom": 4923,
      "sons": 4924,
      "aim": 4925,
      "seg": 4926,
      "##inity": 4927,
      "mentioned": 4928,
      "barr": 4929,
      "##ogue": 4930,
      "males": 4931,
      "cerem": 4932,
      "representative": 4933,
      "whate": 4934,
      "pros": 4935,
      "##zz": 4936,
      "activity": 4937,
      "##asty": 4938,
      "brain": 4939,
      "climate": 4940,
      "experiment": 4941,
      "clark": 4942,
      "##itzer": 4943,
      "visit": 4944,
      "whatever": 4945,
      "designated": 4946,
      "spect": 4947,
      "economy": 4948,
      "##ashed": 4949,
      "songwr": 4950,
      "bibliography": 4951,
      "watching": 4952,
      "gram": 4953,
      "##sey": 4954,
      "imperial": 4955,
      "doll": 4956,
      "animal": 4957,
      "1914": 4958,
      "naz": 4959,
      "##ushing": 4960,
      "##ailed": 4961,
      "save": 4962,
      "accident": 4963,
      "sales": 4964,
      "agent": 4965,
      "composer": 4966,
      "primarily": 4967,
      "chur": 4968,
      "sides": 4969,
      "habit": 4970,
      "realized": 4971,
      "##aki": 4972,
      "##sa": 4973,
      "gon": 4974,
      "boot": 4975,
      "titled": 4976,
      "recently": 4977,
      "ale": 4978,
      "graph": 4979,
      "losing": 4980,
      "frame": 4981,
      "elimin": 4982,
      "alt": 4983,
      "drew": 4984,
      "implement": 4985,
      "battalion": 4986,
      "environmental": 4987,
      "compar": 4988,
      "painting": 4989,
      "##oses": 4990,
      "price": 4991,
      "bond": 4992,
      "andre": 4993,
      "planning": 4994,
      "zone": 4995,
      "##wise": 4996,
      "buried": 4997,
      "##etery": 4998,
      "##ouri": 4999,
      "ali": 5000,
      "cemetery": 5001,
      "grey": 5002,
      "operating": 5003,
      "slov": 5004,
      "spoke": 5005,
      "dub": 5006,
      "gaze": 5007,
      "##40": 5008,
      "condition": 5009,
      "reviews": 5010,
      "combined": 5011,
      "excl": 5012,
      "##isa": 5013,
      "pushed": 5014,
      "maintain": 5015,
      "indones": 5016,
      "1933": 5017,
      "##wick": 5018,
      "##eline": 5019,
      "gor": 5020,
      "aid": 5021,
      "1928": 5022,
      "pleas": 5023,
      "norwe": 5024,
      "lor": 5025,
      "defeat": 5026,
      "samp": 5027,
      "##asy": 5028,
      "headquarters": 5029,
      "##olved": 5030,
      "traffic": 5031,
      "disease": 5032,
      "gang": 5033,
      "freder": 5034,
      "metropol": 5035,
      "becomes": 5036,
      "damage": 5037,
      "listing": 5038,
      "horn": 5039,
      "trop": 5040,
      "##hens": 5041,
      "56": 5042,
      "prominent": 5043,
      "dedicated": 5044,
      "principal": 5045,
      "guest": 5046,
      "seconds": 5047,
      "gil": 5048,
      "rein": 5049,
      "lam": 5050,
      "dry": 5051,
      "walking": 5052,
      "1929": 5053,
      "kitchen": 5054,
      "amount": 5055,
      "stepped": 5056,
      "combat": 5057,
      "compared": 5058,
      "constant": 5059,
      "programming": 5060,
      "format": 5061,
      "##car": 5062,
      "1934": 5063,
      "1917": 5064,
      "needs": 5065,
      "tony": 5066,
      "disappear": 5067,
      "titles": 5068,
      "raj": 5069,
      "participated": 5070,
      "capacity": 5071,
      "##met": 5072,
      "sweden": 5073,
      "prevent": 5074,
      "captured": 5075,
      "fash": 5076,
      "atlantic": 5077,
      "jess": 5078,
      "fully": 5079,
      "##uled": 5080,
      "letters": 5081,
      "##aga": 5082,
      "challeng": 5083,
      "indiana": 5084,
      "palace": 5085,
      "rapid": 5086,
      "vs": 5087,
      "##ram": 5088,
      "seeing": 5089,
      "##ections": 5090,
      "##owa": 5091,
      "##fri": 5092,
      "4th": 5093,
      "##eless": 5094,
      "animals": 5095,
      "settled": 5096,
      "transform": 5097,
      "##fc": 5098,
      "norwegian": 5099,
      "independence": 5100,
      "produce": 5101,
      "grin": 5102,
      "learning": 5103,
      "empt": 5104,
      "drums": 5105,
      "fm": 5106,
      "basis": 5107,
      "models": 5108,
      "driver": 5109,
      "legislative": 5110,
      "resources": 5111,
      "virt": 5112,
      "##sk": 5113,
      "females": 5114,
      "nap": 5115,
      "rise": 5116,
      "conducted": 5117,
      "?\"": 5118,
      "pattern": 5119,
      "hat": 5120,
      "feed": 5121,
      "efforts": 5122,
      "organized": 5123,
      "##een": 5124,
      "##ographic": 5125,
      "uncle": 5126,
      "##igen": 5127,
      "##cing": 5128,
      "distingu": 5129,
      "escape": 5130,
      "gives": 5131,
      "flood": 5132,
      "##ensis": 5133,
      "##aska": 5134,
      "throat": 5135,
      "divided": 5136,
      "shall": 5137,
      "1932": 5138,
      "declared": 5139,
      "kansas": 5140,
      "turning": 5141,
      "critics": 5142,
      "nice": 5143,
      "##weight": 5144,
      "theater": 5145,
      "entry": 5146,
      "typically": 5147,
      "affili": 5148,
      "mathemat": 5149,
      "##ece": 5150,
      "harry": 5151,
      "consum": 5152,
      "buck": 5153,
      "expect": 5154,
      "generation": 5155,
      "mile": 5156,
      "resc": 5157,
      "scale": 5158,
      "##ender": 5159,
      "##ois": 5160,
      "##vin": 5161,
      "fame": 5162,
      "christmas": 5163,
      "lyr": 5164,
      "taught": 5165,
      "powerful": 5166,
      "institutions": 5167,
      "volun": 5168,
      "bah": 5169,
      "##osa": 5170,
      "roof": 5171,
      "follows": 5172,
      "hosted": 5173,
      "nerv": 5174,
      "federation": 5175,
      "pool": 5176,
      "pilot": 5177,
      "##heim": 5178,
      "assigned": 5179,
      "thanks": 5180,
      "evening": 5181,
      "gent": 5182,
      "tu": 5183,
      "transportation": 5184,
      "churches": 5185,
      "shirt": 5186,
      "##kh": 5187,
      "compr": 5188,
      "pip": 5189,
      "##ibuted": 5190,
      "nep": 5191,
      "##real": 5192,
      "##enz": 5193,
      "##regon": 5194,
      "vocal": 5195,
      "seats": 5196,
      "##respond": 5197,
      "poetry": 5198,
      "1924": 5199,
      "orient": 5200,
      "lap": 5201,
      "weather": 5202,
      "turkey": 5203,
      "fashion": 5204,
      "correspond": 5205,
      "pictures": 5206,
      "column": 5207,
      "basic": 5208,
      "hills": 5209,
      "encour": 5210,
      "rear": 5211,
      "##set": 5212,
      "##osen": 5213,
      "falls": 5214,
      "suggested": 5215,
      "brigade": 5216,
      "reference": 5217,
      "missouri": 5218,
      "hart": 5219,
      "occurred": 5220,
      "unable": 5221,
      "armed": 5222,
      "confirmed": 5223,
      "terror": 5224,
      "dism": 5225,
      "comics": 5226,
      "immigr": 5227,
      "vess": 5228,
      "##oir": 5229,
      "1927": 5230,
      "creation": 5231,
      "seems": 5232,
      "nominated": 5233,
      "archae": 5234,
      "41": 5235,
      "davis": 5236,
      "votes": 5237,
      "commonly": 5238,
      "applied": 5239,
      "guess": 5240,
      "laug": 5241,
      "killing": 5242,
      "oregon": 5243,
      "zh": 5244,
      "powers": 5245,
      "##works": 5246,
      "yards": 5247,
      "defend": 5248,
      "amaz": 5249,
      "##ilton": 5250,
      "prepar": 5251,
      "accomp": 5252,
      "ways": 5253,
      "##bit": 5254,
      "literary": 5255,
      "teaching": 5256,
      "reports": 5257,
      "nik": 5258,
      "spons": 5259,
      "returning": 5260,
      "##water": 5261,
      "solid": 5262,
      "picked": 5263,
      "ross": 5264,
      "lyn": 5265,
      "##mill": 5266,
      "eric": 5267,
      "exhibition": 5268,
      "##apping": 5269,
      "colorado": 5270,
      "laughed": 5271,
      "ry": 5272,
      "tai": 5273,
      "physic": 5274,
      "jane": 5275,
      "orth": 5276,
      "sword": 5277,
      "obv": 5278,
      "brian": 5279,
      "59": 5280,
      "birds": 5281,
      "retire": 5282,
      "fought": 5283,
      "400": 5284,
      "surrounding": 5285,
      "##ordin": 5286,
      "gate": 5287,
      "bos": 5288,
      "##aine": 5289,
      "por": 5290,
      "strength": 5291,
      "cu": 5292,
      "www": 5293,
      "shif": 5294,
      "purchased": 5295,
      "sixth": 5296,
      "niger": 5297,
      "religion": 5298,
      "supply": 5299,
      "camer": 5300,
      "desc": 5301,
      "sed": 5302,
      "wet": 5303,
      "lect": 5304,
      "distinct": 5305,
      "kam": 5306,
      "kings": 5307,
      "um": 5308,
      "vehicle": 5309,
      "faith": 5310,
      "##watch": 5311,
      "cris": 5312,
      "1900": 5313,
      "##asa": 5314,
      "1931": 5315,
      "silent": 5316,
      "18th": 5317,
      "sid": 5318,
      "##aria": 5319,
      "speaking": 5320,
      "positions": 5321,
      "hero": 5322,
      "loved": 5323,
      "households": 5324,
      "classic": 5325,
      "begins": 5326,
      "rif": 5327,
      "mans": 5328,
      "hyp": 5329,
      "jump": 5330,
      "58": 5331,
      "questions": 5332,
      "##eed": 5333,
      "weapons": 5334,
      "##25": 5335,
      "1925": 5336,
      "##onents": 5337,
      "ariz": 5338,
      "ky": 5339,
      "##fefe": 5340,
      "intelligence": 5341,
      "malays": 5342,
      "divers": 5343,
      "react": 5344,
      "bodies": 5345,
      "bird": 5346,
      "mast": 5347,
      "tenness": 5348,
      "guns": 5349,
      "budd": 5350,
      "clin": 5351,
      "##orney": 5352,
      "lewis": 5353,
      "gi": 5354,
      "colonel": 5355,
      "##estic": 5356,
      "##aling": 5357,
      "kl": 5358,
      "proceed": 5359,
      "1922": 5360,
      "1921": 5361,
      "1926": 5362,
      "suffered": 5363,
      "##fr": 5364,
      "##lyn": 5365,
      "wrestling": 5366,
      "##je": 5367,
      "guide": 5368,
      "jacob": 5369,
      "whit": 5370,
      "connected": 5371,
      "##ounds": 5372,
      "grass": 5373,
      "tells": 5374,
      "pieces": 5375,
      "##sky": 5376,
      "##iders": 5377,
      "tonight": 5378,
      "##under": 5379,
      "iraq": 5380,
      "norway": 5381,
      "focused": 5382,
      "sight": 5383,
      "wins": 5384,
      "shared": 5385,
      "##mers": 5386,
      "tennessee": 5387,
      "roles": 5388,
      "##urer": 5389,
      "dram": 5390,
      "##aver": 5391,
      "category": 5392,
      "adopted": 5393,
      "cad": 5394,
      "##illery": 5395,
      "##23": 5396,
      "respectively": 5397,
      "pav": 5398,
      "holly": 5399,
      "tank": 5400,
      "##oval": 5401,
      "communist": 5402,
      "stret": 5403,
      "correct": 5404,
      "replied": 5405,
      "nam": 5406,
      "territor": 5407,
      "##inals": 5408,
      "##put": 5409,
      "##come": 5410,
      "brid": 5411,
      "weekly": 5412,
      "1923": 5413,
      "steam": 5414,
      "cher": 5415,
      "##anta": 5416,
      "fel": 5417,
      "conservative": 5418,
      "##ito": 5419,
      "gained": 5420,
      "beside": 5421,
      "##ivity": 5422,
      "launch": 5423,
      "fefefe": 5424,
      "minim": 5425,
      "sell": 5426,
      "vel": 5427,
      "attorney": 5428,
      "ark": 5429,
      "##unct": 5430,
      "measure": 5431,
      "presidential": 5432,
      "mosc": 5433,
      "recomm": 5434,
      "southeast": 5435,
      "core": 5436,
      "gro": 5437,
      "ranked": 5438,
      "faced": 5439,
      "##ulated": 5440,
      "pir": 5441,
      "pale": 5442,
      "admir": 5443,
      "arizona": 5444,
      "directors": 5445,
      "1912": 5446,
      "dal": 5447,
      "coaches": 5448,
      "##time": 5449,
      "han": 5450,
      "wave": 5451,
      "mol": 5452,
      "##born": 5453,
      "bought": 5454,
      "fields": 5455,
      "63": 5456,
      "necessary": 5457,
      "##ples": 5458,
      "##unch": 5459,
      "refused": 5460,
      "ches": 5461,
      "volunte": 5462,
      "d6": 5463,
      "##pton": 5464,
      "journalist": 5465,
      "wings": 5466,
      "theme": 5467,
      "larg": 5468,
      "bowl": 5469,
      "strike": 5470,
      "##cop": 5471,
      "##edia": 5472,
      "athletics": 5473,
      "nuclear": 5474,
      "##gers": 5475,
      "diplom": 5476,
      "##lets": 5477,
      "pand": 5478,
      "hid": 5479,
      "fred": 5480,
      "starring": 5481,
      "##omot": 5482,
      "laid": 5483,
      "joh": 5484,
      "##oured": 5485,
      "philippines": 5486,
      "alternative": 5487,
      "jay": 5488,
      "##70": 5489,
      "plate": 5490,
      "occasion": 5491,
      "dv": 5492,
      "calling": 5493,
      "aqu": 5494,
      "khan": 5495,
      "whispered": 5496,
      "pitt": 5497,
      "planet": 5498,
      "bure": 5499,
      "scoring": 5500,
      "poly": 5501,
      "mam": 5502,
      "inspired": 5503,
      "sri": 5504,
      "##aints": 5505,
      "conclud": 5506,
      "educated": 5507,
      "northwest": 5508,
      "vert": 5509,
      "##icient": 5510,
      "check": 5511,
      "soph": 5512,
      "officials": 5513,
      "entrance": 5514,
      "##ighth": 5515,
      "advoc": 5516,
      "finn": 5517,
      "pant": 5518,
      "turkish": 5519,
      "painter": 5520,
      "1916": 5521,
      "glanced": 5522,
      "steps": 5523,
      "##otic": 5524,
      "estimated": 5525,
      "opposition": 5526,
      "vehicles": 5527,
      "enemy": 5528,
      "hors": 5529,
      "grace": 5530,
      "widely": 5531,
      "princess": 5532,
      "ble": 5533,
      "##akers": 5534,
      "facility": 5535,
      "##isf": 5536,
      "relief": 5537,
      "tas": 5538,
      "publisher": 5539,
      "##umped": 5540,
      "materials": 5541,
      "marked": 5542,
      "##chers": 5543,
      "chosen": 5544,
      "setting": 5545,
      "##azy": 5546,
      "gets": 5547,
      "##acks": 5548,
      "hed": 5549,
      "figures": 5550,
      "metropolitan": 5551,
      "brazilian": 5552,
      "newly": 5553,
      "sounds": 5554,
      "1915": 5555,
      "##mes": 5556,
      "hans": 5557,
      "##apore": 5558,
      "maryland": 5559,
      "attacks": 5560,
      "fit": 5561,
      "offers": 5562,
      "propos": 5563,
      "##amin": 5564,
      "streets": 5565,
      "publication": 5566,
      "hou": 5567,
      "walter": 5568,
      "load": 5569,
      "##uous": 5570,
      "constitution": 5571,
      "classes": 5572,
      "median": 5573,
      "possibly": 5574,
      "regions": 5575,
      "reject": 5576,
      "largely": 5577,
      "moscow": 5578,
      "serves": 5579,
      "philosophy": 5580,
      "##d6d6": 5581,
      "1910": 5582,
      "d6d6d6": 5583,
      "jesus": 5584,
      "gord": 5585,
      "suppl": 5586,
      "cape": 5587,
      "coffee": 5588,
      "##inder": 5589,
      "##olas": 5590,
      "util": 5591,
      "convention": 5592,
      "sunday": 5593,
      "dat": 5594,
      "legend": 5595,
      "neighborhood": 5596,
      "arc": 5597,
      "lands": 5598,
      "vision": 5599,
      "quebec": 5600,
      "granted": 5601,
      "performances": 5602,
      "pointed": 5603,
      "sche": 5604,
      "tears": 5605,
      "promotion": 5606,
      "speech": 5607,
      "alive": 5608,
      "ay": 5609,
      "##24": 5610,
      "comfort": 5611,
      "alliance": 5612,
      "exped": 5613,
      "adapt": 5614,
      "defence": 5615,
      "easily": 5616,
      "consult": 5617,
      "miller": 5618,
      "##onent": 5619,
      "##ovic": 5620,
      "expans": 5621,
      "criminal": 5622,
      "tra": 5623,
      "twel": 5624,
      "##no": 5625,
      "##ao": 5626,
      "175": 5627,
      "jews": 5628,
      "vari": 5629,
      "##astr": 5630,
      "chemical": 5631,
      "weak": 5632,
      "reduced": 5633,
      "##ved": 5634,
      "orders": 5635,
      "surname": 5636,
      "singapore": 5637,
      "nich": 5638,
      "##inger": 5639,
      "jenn": 5640,
      "continues": 5641,
      "queensland": 5642,
      "holds": 5643,
      "expanded": 5644,
      "teeth": 5645,
      "identified": 5646,
      "hunter": 5647,
      "fict": 5648,
      "trains": 5649,
      "##fa": 5650,
      "nar": 5651,
      "contain": 5652,
      "jord": 5653,
      "studios": 5654,
      "wants": 5655,
      "##agu": 5656,
      "wearing": 5657,
      "##oli": 5658,
      "si": 5659,
      "##pan": 5660,
      "##198": 5661,
      "colonial": 5662,
      "subur": 5663,
      "musician": 5664,
      "advert": 5665,
      "warri": 5666,
      "artillery": 5667,
      "orange": 5668,
      "merch": 5669,
      "##lah": 5670,
      "versions": 5671,
      "thirty": 5672,
      "provinc": 5673,
      "ni": 5674,
      "croat": 5675,
      "gym": 5676,
      "acts": 5677,
      "##ishes": 5678,
      "allowing": 5679,
      "cells": 5680,
      "hey": 5681,
      "authorities": 5682,
      "##ounts": 5683,
      "humans": 5684,
      "##ferences": 5685,
      "singers": 5686,
      "phase": 5687,
      "spin": 5688,
      "51": 5689,
      "determined": 5690,
      "insur": 5691,
      "stom": 5692,
      "mall": 5693,
      "melbourne": 5694,
      "crowd": 5695,
      "##aled": 5696,
      "ghost": 5697,
      "performing": 5698,
      "twelve": 5699,
      "reality": 5700,
      "details": 5701,
      "claims": 5702,
      "swiss": 5703,
      "height": 5704,
      "bulgar": 5705,
      "lip": 5706,
      "narrow": 5707,
      "1913": 5708,
      "##stre": 5709,
      "dean": 5710,
      "avoid": 5711,
      "reaching": 5712,
      "supporting": 5713,
      "interior": 5714,
      "cos": 5715,
      "passenger": 5716,
      "ending": 5717,
      "sust": 5718,
      "##inton": 5719,
      "shit": 5720,
      "kids": 5721,
      "dj": 5722,
      "##atures": 5723,
      "receive": 5724,
      "permanent": 5725,
      "kev": 5726,
      "ku": 5727,
      "telling": 5728,
      "##aire": 5729,
      "http": 5730,
      "tropical": 5731,
      "anderson": 5732,
      "spacewatch": 5733,
      "##rence": 5734,
      "connection": 5735,
      "pray": 5736,
      "shape": 5737,
      "decor": 5738,
      "injury": 5739,
      "leaned": 5740,
      "tow": 5741,
      "rud": 5742,
      "finger": 5743,
      "ford": 5744,
      "visual": 5745,
      "inters": 5746,
      "pock": 5747,
      "audience": 5748,
      "unique": 5749,
      "iowa": 5750,
      "mp": 5751,
      "pod": 5752,
      "##uge": 5753,
      "tag": 5754,
      "resulted": 5755,
      "##alty": 5756,
      "##dam": 5757,
      "5th": 5758,
      "huge": 5759,
      "providing": 5760,
      "kentucky": 5761,
      "--": 5762,
      "austria": 5763,
      "##otyp": 5764,
      "teen": 5765,
      "mes": 5766,
      "##rit": 5767,
      "anne": 5768,
      "150": 5769,
      "empty": 5770,
      "write": 5771,
      "passing": 5772,
      "##uguese": 5773,
      "priest": 5774,
      "grabbed": 5775,
      "##osis": 5776,
      "playoff": 5777,
      "##uther": 5778,
      "silence": 5779,
      "investigation": 5780,
      "americans": 5781,
      "jason": 5782,
      "##outs": 5783,
      "portuguese": 5784,
      "wish": 5785,
      "dick": 5786,
      "sets": 5787,
      "lyrics": 5788,
      "athletes": 5789,
      "vietnam": 5790,
      "##ilation": 5791,
      "##mo": 5792,
      "bann": 5793,
      "circle": 5794,
      "calls": 5795,
      "propert": 5796,
      "##ugged": 5797,
      "bot": 5798,
      "ryan": 5799,
      "##ambig": 5800,
      "fu": 5801,
      "shoulders": 5802,
      "brun": 5803,
      "fan": 5804,
      "chile": 5805,
      "satur": 5806,
      "mobile": 5807,
      "link": 5808,
      "arrested": 5809,
      "resulting": 5810,
      "accompan": 5811,
      "##gi": 5812,
      "cole": 5813,
      "patrick": 5814,
      "sarah": 5815,
      "##uted": 5816,
      "##umes": 5817,
      "portray": 5818,
      "etc": 5819,
      "properties": 5820,
      "##aug": 5821,
      "damn": 5822,
      "knowing": 5823,
      "appeal": 5824,
      "defined": 5825,
      "##ori": 5826,
      "##olis": 5827,
      "176": 5828,
      "flo": 5829,
      "knight": 5830,
      "existing": 5831,
      "##fall": 5832,
      "##itled": 5833,
      "wine": 5834,
      "99": 5835,
      "actions": 5836,
      "##iley": 5837,
      "bart": 5838,
      "76": 5839,
      "shell": 5840,
      "attacked": 5841,
      "gay": 5842,
      "toky": 5843,
      "theor": 5844,
      "66": 5845,
      "lemmon": 5846,
      "trump": 5847,
      "ends": 5848,
      "##oti": 5849,
      "alph": 5850,
      "lincol": 5851,
      "laur": 5852,
      "lane": 5853,
      "actresses": 5854,
      "electronic": 5855,
      "historian": 5856,
      "gran": 5857,
      "dynasty": 5858,
      "provincial": 5859,
      "##caa": 5860,
      "##uls": 5861,
      "neur": 5862,
      "covers": 5863,
      "aged": 5864,
      "treas": 5865,
      "##acement": 5866,
      "##etr": 5867,
      "##kee": 5868,
      "loud": 5869,
      "nag": 5870,
      "reasons": 5871,
      "anna": 5872,
      "images": 5873,
      "##bell": 5874,
      "roads": 5875,
      "antonio": 5876,
      "fuel": 5877,
      "danish": 5878,
      "lincoln": 5879,
      "learned": 5880,
      "alab": 5881,
      "honours": 5882,
      "rum": 5883,
      "thor": 5884,
      "violence": 5885,
      "##standing": 5886,
      "cru": 5887,
      "cathed": 5888,
      "##abad": 5889,
      "advis": 5890,
      "1950s": 5891,
      "incident": 5892,
      "wy": 5893,
      "##eral": 5894,
      "##vi": 5895,
      "disambig": 5896,
      "1911": 5897,
      "##ami": 5898,
      "handed": 5899,
      "oldest": 5900,
      "##iques": 5901,
      "##ni": 5902,
      "##char": 5903,
      "strateg": 5904,
      "##die": 5905,
      "domestic": 5906,
      "dioc": 5907,
      "ment": 5908,
      "disambiguation": 5909,
      "journey": 5910,
      "waters": 5911,
      "##otes": 5912,
      "ms": 5913,
      "myst": 5914,
      "tone": 5915,
      "unlike": 5916,
      "lifted": 5917,
      "internal": 5918,
      "tang": 5919,
      "recognition": 5920,
      "commonwe": 5921,
      "fans": 5922,
      "##icked": 5923,
      "greece": 5924,
      "candidates": 5925,
      "(;": 5926,
      "identity": 5927,
      "golf": 5928,
      "##estab": 5929,
      "strange": 5930,
      "dol": 5931,
      "pione": 5932,
      "switzer": 5933,
      "creating": 5934,
      "turns": 5935,
      "tokyo": 5936,
      "##enez": 5937,
      "howard": 5938,
      "cloth": 5939,
      "belg": 5940,
      "commonwealth": 5941,
      "armen": 5942,
      "guards": 5943,
      "beng": 5944,
      "dougl": 5945,
      "##utional": 5946,
      "witness": 5947,
      "beneath": 5948,
      "doors": 5949,
      "pear": 5950,
      "impl": 5951,
      "##iva": 5952,
      "clothes": 5953,
      "##ivals": 5954,
      "graduate": 5955,
      "anthony": 5956,
      "1908": 5957,
      "send": 5958,
      "##mouth": 5959,
      "##pe": 5960,
      "##45": 5961,
      "##gb": 5962,
      "programme": 5963,
      "youre": 5964,
      "##mans": 5965,
      "##owned": 5966,
      "driving": 5967,
      "##ante": 5968,
      "2022": 5969,
      "##wich": 5970,
      "paintings": 5971,
      "portra": 5972,
      "methods": 5973,
      "occupied": 5974,
      "migr": 5975,
      "locomot": 5976,
      "margar": 5977,
      "greatest": 5978,
      ")\"": 5979,
      "stayed": 5980,
      "advant": 5981,
      "##lines": 5982,
      "switzerland": 5983,
      "lan": 5984,
      "##laim": 5985,
      "northeast": 5986,
      "plus": 5987,
      "bou": 5988,
      "raf": 5989,
      "quant": 5990,
      "##load": 5991,
      "heads": 5992,
      "hamilton": 5993,
      "borough": 5994,
      "buff": 5995,
      "tast": 5996,
      "oklah": 5997,
      "repeated": 5998,
      "situated": 5999,
      "fictional": 6000,
      "israeli": 6001,
      "lob": 6002,
      "##friend": 6003,
      "##alo": 6004,
      "clay": 6005,
      "manchester": 6006,
      "billion": 6007,
      "bapt": 6008,
      "density": 6009,
      "##iants": 6010,
      "pink": 6011,
      "succeeded": 6012,
      "allows": 6013,
      "knows": 6014,
      "##erb": 6015,
      "stuff": 6016,
      "patri": 6017,
      "strip": 6018,
      "ethnic": 6019,
      "hungarian": 6020,
      "circuit": 6021,
      "competitions": 6022,
      "dave": 6023,
      "##27": 6024,
      "glad": 6025,
      "##anny": 6026,
      "introduction": 6027,
      "jordan": 6028,
      "ko": 6029,
      "obtained": 6030,
      "rare": 6031,
      "##apes": 6032,
      "rick": 6033,
      "sail": 6034,
      "##ird": 6035,
      "##gas": 6036,
      "hip": 6037,
      "lith": 6038,
      "ern": 6039,
      "bachel": 6040,
      "##oted": 6041,
      "oklahoma": 6042,
      "##sch": 6043,
      "factory": 6044,
      "chen": 6045,
      "sick": 6046,
      "##otte": 6047,
      "ambass": 6048,
      "trouble": 6049,
      "schedule": 6050,
      "knock": 6051,
      "athletic": 6052,
      "multi": 6053,
      "nfl": 6054,
      "stor": 6055,
      "pope": 6056,
      "subsequent": 6057,
      "##ache": 6058,
      "containing": 6059,
      "blues": 6060,
      "attempted": 6061,
      "ncaa": 6062,
      "gib": 6063,
      "recordings": 6064,
      "finding": 6065,
      "17th": 6066,
      "##ucc": 6067,
      "effective": 6068,
      "veter": 6069,
      "centuries": 6070,
      "comic": 6071,
      "chain": 6072,
      "consequ": 6073,
      "truck": 6074,
      "synt": 6075,
      "sector": 6076,
      "85": 6077,
      "senator": 6078,
      "##icut": 6079,
      "##agan": 6080,
      "##cript": 6081,
      "banks": 6082,
      "keeping": 6083,
      "billboard": 6084,
      "##pool": 6085,
      "agricultural": 6086,
      "opin": 6087,
      "67": 6088,
      "desk": 6089,
      "founding": 6090,
      "95": 6091,
      "##ses": 6092,
      "rib": 6093,
      "##ifer": 6094,
      "commissioned": 6095,
      "bom": 6096,
      "buy": 6097,
      "behavior": 6098,
      "cannot": 6099,
      "fern": 6100,
      "ech": 6101,
      "application": 6102,
      "',": 6103,
      "##eller": 6104,
      "##adu": 6105,
      "interact": 6106,
      "##rig": 6107,
      "88": 6108,
      "drawn": 6109,
      "message": 6110,
      "ride": 6111,
      "communications": 6112,
      "expansion": 6113,
      "mississ": 6114,
      "concer": 6115,
      "stomach": 6116,
      "##onian": 6117,
      "##zen": 6118,
      "papers": 6119,
      "##26": 6120,
      "kaz": 6121,
      "alabama": 6122,
      "ultimately": 6123,
      "tail": 6124,
      "##eland": 6125,
      "liver": 6126,
      "##mitted": 6127,
      "conservation": 6128,
      "protected": 6129,
      "reaction": 6130,
      "alan": 6131,
      "73": 6132,
      "attempts": 6133,
      "entirely": 6134,
      "thoughts": 6135,
      "ot": 6136,
      "vampire": 6137,
      "fellows": 6138,
      "##ingly": 6139,
      "##cles": 6140,
      "landsc": 6141,
      "salt": 6142,
      "listen": 6143,
      "##ries": 6144,
      "shooting": 6145,
      "##rad": 6146,
      "aired": 6147,
      "##mi": 6148,
      "sale": 6149,
      "opportunity": 6150,
      "ian": 6151,
      "fighter": 6152,
      "abandoned": 6153,
      "marie": 6154,
      "lawyer": 6155,
      "arena": 6156,
      "dc": 6157,
      "thats": 6158,
      "scheduled": 6159,
      "portion": 6160,
      "matthew": 6161,
      "interp": 6162,
      "harvard": 6163,
      "##ugal": 6164,
      "##umber": 6165,
      "hamp": 6166,
      "kon": 6167,
      "specif": 6168,
      "equal": 6169,
      "##oto": 6170,
      "##izz": 6171,
      "examples": 6172,
      "signal": 6173,
      "communication": 6174,
      "elementary": 6175,
      "managers": 6176,
      "amate": 6177,
      "##ti": 6178,
      "partnership": 6179,
      "translation": 6180,
      "visited": 6181,
      "fold": 6182,
      "##ologists": 6183,
      "broadcasting": 6184,
      "task": 6185,
      "##di": 6186,
      "sv": 6187,
      "retirement": 6188,
      "dod": 6189,
      "starts": 6190,
      "##eston": 6191,
      "opposite": 6192,
      "68": 6193,
      "universities": 6194,
      "neither": 6195,
      "##oa": 6196,
      "sang": 6197,
      "recru": 6198,
      "cha": 6199,
      "kevin": 6200,
      "guys": 6201,
      "standards": 6202,
      "gain": 6203,
      "hits": 6204,
      "animated": 6205,
      "##lan": 6206,
      "smoot": 6207,
      "69": 6208,
      "approved": 6209,
      "##ista": 6210,
      "##28": 6211,
      "merc": 6212,
      "nin": 6213,
      "##hu": 6214,
      "lank": 6215,
      "samuel": 6216,
      "resistance": 6217,
      "pages": 6218,
      "wealth": 6219,
      "philip": 6220,
      "maximum": 6221,
      "explained": 6222,
      "joy": 6223,
      "ltd": 6224,
      "lists": 6225,
      "dall": 6226,
      "walker": 6227,
      "southwest": 6228,
      "cathedral": 6229,
      "##view": 6230,
      "nose": 6231,
      "duty": 6232,
      "heavily": 6233,
      "loan": 6234,
      "confeder": 6235,
      "sty": 6236,
      "gordon": 6237,
      "douglas": 6238,
      "anyway": 6239,
      "dragon": 6240,
      "##ieval": 6241,
      "apartment": 6242,
      "##idi": 6243,
      "prefect": 6244,
      "bachelor": 6245,
      "##icial": 6246,
      "seventh": 6247,
      "composition": 6248,
      "austrian": 6249,
      "##ublin": 6250,
      "##bra": 6251,
      "##ran": 6252,
      "frequently": 6253,
      "dynam": 6254,
      "trained": 6255,
      "bureau": 6256,
      "##ager": 6257,
      "carp": 6258,
      "flu": 6259,
      "houston": 6260,
      "##ippi": 6261,
      "relatively": 6262,
      "establishment": 6263,
      "pas": 6264,
      "connecticut": 6265,
      "##29": 6266,
      "##orro": 6267,
      "mole": 6268,
      "causing": 6269,
      "##cement": 6270,
      "collected": 6271,
      "unf": 6272,
      "allen": 6273,
      "sacr": 6274,
      "lights": 6275,
      "myth": 6276,
      "disestab": 6277,
      "strik": 6278,
      "prix": 6279,
      "saturday": 6280,
      "blind": 6281,
      "maur": 6282,
      "noticed": 6283,
      "wasnt": 6284,
      "##ikh": 6285,
      "locations": 6286,
      "##ardo": 6287,
      "diego": 6288,
      "cabinet": 6289,
      "superv": 6290,
      "wake": 6291,
      "##usted": 6292,
      "##erto": 6293,
      "string": 6294,
      "77": 6295,
      "surprise": 6296,
      "78": 6297,
      "sie": 6298,
      "##tering": 6299,
      "##iments": 6300,
      "phill": 6301,
      "salv": 6302,
      "##uses": 6303,
      "clearly": 6304,
      "argentina": 6305,
      "flash": 6306,
      "taiwan": 6307,
      "##197": 6308,
      "juan": 6309,
      "bid": 6310,
      "covid": 6311,
      "serge": 6312,
      "##alt": 6313,
      "statement": 6314,
      "achieved": 6315,
      "##roit": 6316,
      "script": 6317,
      "receiving": 6318,
      "josh": 6319,
      "##onomy": 6320,
      "berg": 6321,
      "##gor": 6322,
      "lose": 6323,
      "lanc": 6324,
      "##agen": 6325,
      "flow": 6326,
      "##box": 6327,
      "controlled": 6328,
      "nom": 6329,
      "soundtr": 6330,
      "existence": 6331,
      "infr": 6332,
      "##raid": 6333,
      "1909": 6334,
      "grav": 6335,
      "##ken": 6336,
      "offices": 6337,
      "##oslav": 6338,
      "tongue": 6339,
      "metres": 6340,
      "shadow": 6341,
      "##iere": 6342,
      "reign": 6343,
      "##ares": 6344,
      "cous": 6345,
      "chapel": 6346,
      "withdr": 6347,
      "experi": 6348,
      "louisiana": 6349,
      "falling": 6350,
      "emergency": 6351,
      "treaty": 6352,
      "learn": 6353,
      "selection": 6354,
      "shock": 6355,
      "##dd": 6356,
      "agriculture": 6357,
      "##okes": 6358,
      "conversation": 6359,
      "excell": 6360,
      "worry": 6361,
      "prefer": 6362,
      "scholar": 6363,
      "showing": 6364,
      "extrem": 6365,
      "representing": 6366,
      "selling": 6367,
      "flowers": 6368,
      "74": 6369,
      "##istol": 6370,
      "##cious": 6371,
      "emph": 6372,
      "sque": 6373,
      "invited": 6374,
      "bush": 6375,
      "ug": 6376,
      "depress": 6377,
      "##ictions": 6378,
      "1905": 6379,
      "yourself": 6380,
      "1906": 6381,
      "belgium": 6382,
      "##kel": 6383,
      "gene": 6384,
      "##ho": 6385,
      "roger": 6386,
      "pow": 6387,
      "16th": 6388,
      "fuck": 6389,
      "##olished": 6390,
      "horror": 6391,
      "tend": 6392,
      "hud": 6393,
      "briefly": 6394,
      "##iliar": 6395,
      "##icate": 6396,
      "restaurant": 6397,
      "##aux": 6398,
      "muslim": 6399,
      "qualified": 6400,
      "ukraine": 6401,
      "morgan": 6402,
      "rising": 6403,
      "settle": 6404,
      "islamic": 6405,
      "##aro": 6406,
      "harm": 6407,
      "tab": 6408,
      "doubt": 6409,
      "satell": 6410,
      "##ads": 6411,
      "regarding": 6412,
      "##atus": 6413,
      "detroit": 6414,
      "twin": 6415,
      "##present": 6416,
      "1907": 6417,
      "uniform": 6418,
      "frederick": 6419,
      "seed": 6420,
      "shield": 6421,
      "hide": 6422,
      "exclus": 6423,
      "temperature": 6424,
      "universal": 6425,
      "wels": 6426,
      "formal": 6427,
      "cryst": 6428,
      "##elli": 6429,
      "failure": 6430,
      "mack": 6431,
      "puerto": 6432,
      "satisf": 6433,
      "97": 6434,
      "ukrainian": 6435,
      "mississippi": 6436,
      "##essions": 6437,
      "recon": 6438,
      "notice": 6439,
      "afraid": 6440,
      "otherwise": 6441,
      "##opter": 6442,
      "'.": 6443,
      "carrying": 6444,
      "patients": 6445,
      "femin": 6446,
      "canal": 6447,
      "shaped": 6448,
      "liqu": 6449,
      "applications": 6450,
      "ideas": 6451,
      "dir": 6452,
      "homes": 6453,
      "ceremony": 6454,
      "colomb": 6455,
      "haz": 6456,
      "copies": 6457,
      "##father": 6458,
      "flower": 6459,
      "instruct": 6460,
      "crack": 6461,
      "crossed": 6462,
      "flora": 6463,
      "bent": 6464,
      "electoral": 6465,
      "##uri": 6466,
      "interested": 6467,
      "funding": 6468,
      "edited": 6469,
      "landing": 6470,
      "ze": 6471,
      "amateur": 6472,
      "ast": 6473,
      "dinner": 6474,
      "advance": 6475,
      "rooms": 6476,
      "##iven": 6477,
      "coordin": 6478,
      "crisis": 6479,
      "prepared": 6480,
      "jaw": 6481,
      "expedition": 6482,
      "apparently": 6483,
      "contrast": 6484,
      "request": 6485,
      "##agues": 6486,
      "wooden": 6487,
      "entitled": 6488,
      "stream": 6489,
      "index": 6490,
      "lux": 6491,
      "adap": 6492,
      "loy": 6493,
      "singing": 6494,
      "##rison": 6495,
      "ja": 6496,
      "dak": 6497,
      "parks": 6498,
      "annivers": 6499,
      "medieval": 6500,
      "brick": 6501,
      "missed": 6502,
      "deleg": 6503,
      "##ghan": 6504,
      "finds": 6505,
      "indigen": 6506,
      "distinguished": 6507,
      "billy": 6508,
      "admitted": 6509,
      "innov": 6510,
      "nel": 6511,
      "butter": 6512,
      "contained": 6513,
      "pressed": 6514,
      "inhabit": 6515,
      "montreal": 6516,
      "worldwide": 6517,
      "recall": 6518,
      "fried": 6519,
      "harris": 6520,
      "79": 6521,
      "charlie": 6522,
      "archive": 6523,
      "converted": 6524,
      "overs": 6525,
      "negative": 6526,
      "rav": 6527,
      "##eph": 6528,
      "barn": 6529,
      "##body": 6530,
      "socorro": 6531,
      "##stan": 6532,
      "extensive": 6533,
      "surg": 6534,
      "hawai": 6535,
      "rio": 6536,
      "##hist": 6537,
      "kelly": 6538,
      "##inces": 6539,
      "pill": 6540,
      "ted": 6541,
      "franch": 6542,
      "translated": 6543,
      "##oom": 6544,
      "rival": 6545,
      "clock": 6546,
      "upd": 6547,
      "parliamentary": 6548,
      "aviation": 6549,
      "tort": 6550,
      "denmark": 6551,
      "chronic": 6552,
      "barely": 6553,
      "functions": 6554,
      "profit": 6555,
      "employed": 6556,
      "michel": 6557,
      "evil": 6558,
      "##ching": 6559,
      "metro": 6560,
      "##illed": 6561,
      "specifically": 6562,
      "portugal": 6563,
      "welsh": 6564,
      "gentle": 6565,
      "parall": 6566,
      "alexand": 6567,
      "vinc": 6568,
      "sought": 6569,
      "##dale": 6570,
      "1904": 6571,
      "favour": 6572,
      "desire": 6573,
      "registered": 6574,
      "##western": 6575,
      "surprised": 6576,
      "understanding": 6577,
      "##umin": 6578,
      "consisted": 6579,
      "##burn": 6580,
      "pitts": 6581,
      "bringing": 6582,
      "conqu": 6583,
      "injured": 6584,
      "negoti": 6585,
      "enr": 6586,
      "caval": 6587,
      "6th": 6588,
      "diamond": 6589,
      "photograph": 6590,
      "enfor": 6591,
      "struck": 6592,
      "credit": 6593,
      "institution": 6594,
      "anniversary": 6595,
      "##esc": 6596,
      "stick": 6597,
      "##35": 6598,
      "cricketers": 6599,
      "roc": 6600,
      "palm": 6601,
      "cash": 6602,
      "margaret": 6603,
      "##ucks": 6604,
      "mental": 6605,
      "##odox": 6606,
      "##iami": 6607,
      "craft": 6608,
      "frag": 6609,
      "moore": 6610,
      "##icide": 6611,
      "canc": 6612,
      "benn": 6613,
      "fisher": 6614,
      "remembered": 6615,
      "##oen": 6616,
      "##ifications": 6617,
      "opposed": 6618,
      "budget": 6619,
      "bund": 6620,
      "89": 6621,
      "##asm": 6622,
      "ric": 6623,
      "indigenous": 6624,
      "##pers": 6625,
      "edin": 6626,
      "shout": 6627,
      "##utt": 6628,
      "cinema": 6629,
      "ic": 6630,
      "scenes": 6631,
      "##abil": 6632,
      "dies": 6633,
      "ss": 6634,
      "##rete": 6635,
      "pig": 6636,
      "hydr": 6637,
      "stup": 6638,
      "chuck": 6639,
      "consecut": 6640,
      "colspan": 6641,
      "cot": 6642,
      "##kshire": 6643,
      "residence": 6644,
      "torn": 6645,
      "##eton": 6646,
      "exerc": 6647,
      "outstanding": 6648,
      "rolled": 6649,
      "explos": 6650,
      "96": 6651,
      "chec": 6652,
      "##zh": 6653,
      "soldier": 6654,
      "session": 6655,
      "dvd": 6656,
      "refuge": 6657,
      "limit": 6658,
      "symbol": 6659,
      "miami": 6660,
      "camera": 6661,
      "dates": 6662,
      "besides": 6663,
      "pure": 6664,
      "fired": 6665,
      "hired": 6666,
      "emigr": 6667,
      "inner": 6668,
      "threw": 6669,
      "bands": 6670,
      "lod": 6671,
      "stew": 6672,
      "chose": 6673,
      "formula": 6674,
      "closely": 6675,
      "smart": 6676,
      "crazy": 6677,
      "dangerous": 6678,
      "absol": 6679,
      "beauty": 6680,
      "push": 6681,
      "##atherine": 6682,
      ";\"|": 6683,
      "cock": 6684,
      "elder": 6685,
      "assault": 6686,
      "breaking": 6687,
      "sisters": 6688,
      "vik": 6689,
      "##uces": 6690,
      "palest": 6691,
      "##rell": 6692,
      "expos": 6693,
      "derived": 6694,
      "skills": 6695,
      "constituency": 6696,
      "remix": 6697,
      "gm": 6698,
      "##48": 6699,
      "inher": 6700,
      "nurs": 6701,
      "courts": 6702,
      "##ibr": 6703,
      "##oked": 6704,
      "finishing": 6705,
      "hav": 6706,
      "##ello": 6707,
      "inaug": 6708,
      "monument": 6709,
      "endemic": 6710,
      "lying": 6711,
      "1903": 6712,
      "classification": 6713,
      "rhyth": 6714,
      "##acent": 6715,
      "bord": 6716,
      "98": 6717,
      "difference": 6718,
      "licens": 6719,
      "developing": 6720,
      "86": 6721,
      "##gie": 6722,
      "convent": 6723,
      "occas": 6724,
      "appre": 6725,
      "legacy": 6726,
      "mi": 6727,
      "##agh": 6728,
      "actual": 6729,
      "plane": 6730,
      "branc": 6731,
      "emphas": 6732,
      "synd": 6733,
      "stands": 6734,
      "gabri": 6735,
      "ministers": 6736,
      "symph": 6737,
      "subd": 6738,
      "giant": 6739,
      "fantasy": 6740,
      "##how": 6741,
      "7th": 6742,
      "hungary": 6743,
      "##**": 6744,
      "swimming": 6745,
      "hyd": 6746,
      "views": 6747,
      "employees": 6748,
      "objects": 6749,
      "##uma": 6750,
      "nev": 6751,
      "alleged": 6752,
      "circum": 6753,
      "##dered": 6754,
      "gam": 6755,
      "finance": 6756,
      "profession": 6757,
      "criticism": 6758,
      "##ecution": 6759,
      "##tv": 6760,
      "desert": 6761,
      "##anne": 6762,
      "tip": 6763,
      "tied": 6764,
      "raw": 6765,
      "##bish": 6766,
      "gig": 6767,
      "1901": 6768,
      "painted": 6769,
      "engines": 6770,
      "tamil": 6771,
      "beet": 6772,
      "cord": 6773,
      "edinburgh": 6774,
      "##ulate": 6775,
      "liked": 6776,
      "equival": 6777,
      "87": 6778,
      "staring": 6779,
      "alfred": 6780,
      "mond": 6781,
      "##bar": 6782,
      "decre": 6783,
      "param": 6784,
      "##ladesh": 6785,
      "dublin": 6786,
      "##iller": 6787,
      "investment": 6788,
      "decades": 6789,
      "asks": 6790,
      "furn": 6791,
      "bangladesh": 6792,
      "##bu": 6793,
      "answered": 6794,
      "venez": 6795,
      "hook": 6796,
      "cycle": 6797,
      "##hammad": 6798,
      "invasion": 6799,
      "tie": 6800,
      "influenced": 6801,
      "tiny": 6802,
      "weapon": 6803,
      "donald": 6804,
      "pierre": 6805,
      "lawrence": 6806,
      "##stream": 6807,
      "##omer": 6808,
      "arkansas": 6809,
      "divisions": 6810,
      "amend": 6811,
      "indonesia": 6812,
      "deploy": 6813,
      "carbon": 6814,
      "jimmy": 6815,
      "rig": 6816,
      "photo": 6817,
      "medium": 6818,
      "discovery": 6819,
      "boss": 6820,
      "incorporated": 6821,
      "##sex": 6822,
      "songwriter": 6823,
      "##ologies": 6824,
      "consecutive": 6825,
      "evolution": 6826,
      "##wal": 6827,
      "assass": 6828,
      "05": 6829,
      "economics": 6830,
      "scientists": 6831,
      "backing": 6832,
      "johnny": 6833,
      "1902": 6834,
      "wedding": 6835,
      "pel": 6836,
      "##eding": 6837,
      "funds": 6838,
      "summ": 6839,
      "maintained": 6840,
      "acid": 6841,
      "##incorporated": 6842,
      "##33": 6843,
      "unc": 6844,
      "audio": 6845,
      "productions": 6846,
      "hole": 6847,
      "hollywood": 6848,
      "shah": 6849,
      "teachers": 6850,
      "mining": 6851,
      "resigned": 6852,
      "arn": 6853,
      "passes": 6854,
      "crossing": 6855,
      "runner": 6856,
      "tomor": 6857,
      "bun": 6858,
      "darkness": 6859,
      "proced": 6860,
      "remind": 6861,
      "submar": 6862,
      "illeg": 6863,
      "hunting": 6864,
      "merged": 6865,
      "observed": 6866,
      "trophy": 6867,
      "johann": 6868,
      "##mal": 6869,
      "##imb": 6870,
      "extension": 6871,
      "qualifying": 6872,
      "aftern": 6873,
      "##din": 6874,
      "##aved": 6875,
      "peters": 6876,
      "gymn": 6877,
      "##asts": 6878,
      "advantage": 6879,
      "dismiss": 6880,
      "painters": 6881,
      "contributed": 6882,
      "proved": 6883,
      "occurs": 6884,
      "##ieved": 6885,
      "engineers": 6886,
      "attached": 6887,
      "ancest": 6888,
      "##life": 6889,
      "##issance": 6890,
      "depend": 6891,
      "##otted": 6892,
      "##enh": 6893,
      "protein": 6894,
      "magazines": 6895,
      "##tra": 6896,
      "joining": 6897,
      "successfully": 6898,
      "waited": 6899,
      "unincorporated": 6900,
      "##iner": 6901,
      "engaged": 6902,
      "importance": 6903,
      "fixed": 6904,
      "slam": 6905,
      "tunnel": 6906,
      "promise": 6907,
      "yor": 6908,
      "##ading": 6909,
      "bedroom": 6910,
      "blank": 6911,
      "soundtrack": 6912,
      "hearing": 6913,
      "mail": 6914,
      "intel": 6915,
      "recre": 6916,
      "malaysia": 6917,
      "hir": 6918,
      "municipalities": 6919,
      "romantic": 6920,
      "afghan": 6921,
      "underground": 6922,
      "tomorrow": 6923,
      "device": 6924,
      "physics": 6925,
      "touchdown": 6926,
      "pocket": 6927,
      "##196": 6928,
      "expressed": 6929,
      "atlanta": 6930,
      "orthodox": 6931,
      "cheek": 6932,
      "collections": 6933,
      "##heas": 6934,
      "##night": 6935,
      "defensive": 6936,
      "\"),": 6937,
      "##aks": 6938,
      "universe": 6939,
      "##hetic": 6940,
      "##oda": 6941,
      "spell": 6942,
      "drawing": 6943,
      "causes": 6944,
      "bruce": 6945,
      "downtown": 6946,
      "calm": 6947,
      "craw": 6948,
      "file": 6949,
      "asking": 6950,
      "grounds": 6951,
      "160": 6952,
      "assess": 6953,
      "belgian": 6954,
      "lakes": 6955,
      "interpret": 6956,
      "assumed": 6957,
      "kan": 6958,
      "defunct": 6959,
      "##ucture": 6960,
      "alco": 6961,
      "paus": 6962,
      "tru": 6963,
      "manufacturing": 6964,
      "##ven": 6965,
      "##veland": 6966,
      "counties": 6967,
      "woods": 6968,
      "62": 6969,
      "junction": 6970,
      "##cription": 6971,
      "underst": 6972,
      "argued": 6973,
      "worse": 6974,
      "84": 6975,
      "##39": 6976,
      "##rane": 6977,
      "compilation": 6978,
      "refers": 6979,
      "organisation": 6980,
      "hidden": 6981,
      "1930s": 6982,
      "shore": 6983,
      "documents": 6984,
      "explain": 6985,
      "pse": 6986,
      "moths": 6987,
      "##ipe": 6988,
      "recipients": 6989,
      "##pur": 6990,
      "##usal": 6991,
      "items": 6992,
      "rush": 6993,
      "judges": 6994,
      "cleveland": 6995,
      "tig": 6996,
      "##gal": 6997,
      "##ocol": 6998,
      "transition": 6999,
      "dust": 7000,
      "##nie": 7001,
      "producing": 7002,
      "hem": 7003,
      "##ycl": 7004,
      "##oyd": 7005,
      "##38": 7006,
      "belief": 7007,
      "associate": 7008,
      "penins": 7009,
      "##oft": 7010,
      "nur": 7011,
      "##ials": 7012,
      "01": 7013,
      "drivers": 7014,
      "leads": 7015,
      "utah": 7016,
      "##orph": 7017,
      "angry": 7018,
      "persons": 7019,
      "eu": 7020,
      "grown": 7021,
      "dallas": 7022,
      "grah": 7023,
      "1898": 7024,
      "christopher": 7025,
      "seb": 7026,
      "##aceae": 7027,
      "170": 7028,
      "pitch": 7029,
      "finland": 7030,
      "##eals": 7031,
      "affected": 7032,
      "sugar": 7033,
      "##iah": 7034,
      "coc": 7035,
      "gill": 7036,
      "factor": 7037,
      "##lon": 7038,
      "socialist": 7039,
      "##do": 7040,
      "ridge": 7041,
      "##lying": 7042,
      "##while": 7043,
      "cler": 7044,
      "marshall": 7045,
      "familiar": 7046,
      "ranking": 7047,
      "survived": 7048,
      "datab": 7049,
      "combination": 7050,
      "noise": 7051,
      "victims": 7052,
      "cul": 7053,
      "lean": 7054,
      "##iya": 7055,
      "winds": 7056,
      "seattle": 7057,
      "denn": 7058,
      "mason": 7059,
      "renew": 7060,
      "diocese": 7061,
      "##aj": 7062,
      "helping": 7063,
      "##anian": 7064,
      "##emen": 7065,
      "sighed": 7066,
      "liga": 7067,
      "typical": 7068,
      "rolling": 7069,
      "imposs": 7070,
      "coat": 7071,
      "##po": 7072,
      "gear": 7073,
      "karl": 7074,
      "inhabitants": 7075,
      "inch": 7076,
      "rescue": 7077,
      "##rees": 7078,
      "##acle": 7079,
      "vul": 7080,
      "wes": 7081,
      "##oking": 7082,
      "unus": 7083,
      "##ders": 7084,
      "adjacent": 7085,
      "##ographical": 7086,
      "voted": 7087,
      "honour": 7088,
      "concerned": 7089,
      "dh": 7090,
      "##oria": 7091,
      "users": 7092,
      "gast": 7093,
      "pulling": 7094,
      "##tle": 7095,
      "##ailand": 7096,
      "stal": 7097,
      "installed": 7098,
      "guine": 7099,
      "gender": 7100,
      "couldnt": 7101,
      "serbian": 7102,
      "##ogs": 7103,
      "ris": 7104,
      "nord": 7105,
      "yug": 7106,
      "pseud": 7107,
      "russell": 7108,
      "##chi": 7109,
      "goods": 7110,
      "cc": 7111,
      "pittsburgh": 7112,
      "dating": 7113,
      "involving": 7114,
      "##36": 7115,
      "invent": 7116,
      "swall": 7117,
      "kissed": 7118,
      "poems": 7119,
      "##borough": 7120,
      "prisoners": 7121,
      "anch": 7122,
      "vin": 7123,
      "##oust": 7124,
      "romania": 7125,
      "horses": 7126,
      "lud": 7127,
      "nas": 7128,
      "gross": 7129,
      "offensive": 7130,
      "chase": 7131,
      "coastal": 7132,
      "##ortion": 7133,
      "rebu": 7134,
      "depos": 7135,
      "##ayan": 7136,
      "dee": 7137,
      "pregn": 7138,
      "tact": 7139,
      "enterpr": 7140,
      "colleges": 7141,
      "scor": 7142,
      "##49": 7143,
      "##etime": 7144,
      "gest": 7145,
      "stating": 7146,
      "adapted": 7147,
      "afternoon": 7148,
      "concluded": 7149,
      "1899": 7150,
      "mud": 7151,
      "regarded": 7152,
      "06": 7153,
      "stores": 7154,
      "delay": 7155,
      "unless": 7156,
      "hunt": 7157,
      "covering": 7158,
      "##lusion": 7159,
      "plain": 7160,
      "foss": 7161,
      "anger": 7162,
      "##ui": 7163,
      "##liest": 7164,
      "carter": 7165,
      "##yard": 7166,
      "somewhere": 7167,
      "composers": 7168,
      "kos": 7169,
      "isol": 7170,
      "disney": 7171,
      "##nat": 7172,
      "smooth": 7173,
      "##ais": 7174,
      "tob": 7175,
      "stupid": 7176,
      "accused": 7177,
      "thailand": 7178,
      "producers": 7179,
      "bin": 7180,
      "cave": 7181,
      "##iac": 7182,
      "ruled": 7183,
      "forever": 7184,
      "wounded": 7185,
      "newspapers": 7186,
      "mathematics": 7187,
      "arranged": 7188,
      "monaster": 7189,
      "purchase": 7190,
      "##tic": 7191,
      "desper": 7192,
      "##ctic": 7193,
      "##ras": 7194,
      "marry": 7195,
      "handle": 7196,
      "##umbled": 7197,
      "lac": 7198,
      "odd": 7199,
      "capture": 7200,
      "charged": 7201,
      "saints": 7202,
      "##ando": 7203,
      "retail": 7204,
      "assistance": 7205,
      "techniques": 7206,
      "venezuel": 7207,
      "values": 7208,
      "anymore": 7209,
      "phen": 7210,
      "monk": 7211,
      "romanian": 7212,
      "biggest": 7213,
      "improved": 7214,
      "experienced": 7215,
      "destr": 7216,
      "rect": 7217,
      "surrounded": 7218,
      "diet": 7219,
      "apple": 7220,
      "friendly": 7221,
      "og": 7222,
      "thousands": 7223,
      "consisting": 7224,
      "volley": 7225,
      "##udi": 7226,
      "600": 7227,
      "##ext": 7228,
      "aside": 7229,
      "##itely": 7230,
      "##heastern": 7231,
      "chand": 7232,
      "solar": 7233,
      "spoken": 7234,
      "leaf": 7235,
      "changing": 7236,
      "ottoman": 7237,
      "##etta": 7238,
      "opinion": 7239,
      "singh": 7240,
      "##pm": 7241,
      "fruit": 7242,
      "belt": 7243,
      "##heless": 7244,
      "##emble": 7245,
      "eleven": 7246,
      "##iki": 7247,
      "thunder": 7248,
      "##angel": 7249,
      "##ensions": 7250,
      "switch": 7251,
      "09": 7252,
      "improve": 7253,
      "jake": 7254,
      "manus": 7255,
      "nan": 7256,
      "manner": 7257,
      "membership": 7258,
      "delivered": 7259,
      "honorary": 7260,
      "##ocated": 7261,
      "##ivia": 7262,
      "mps": 7263,
      "genera": 7264,
      "substit": 7265,
      "yank": 7266,
      "veget": 7267,
      "##47": 7268,
      "%.": 7269,
      "violin": 7270,
      "orle": 7271,
      "promote": 7272,
      "##cia": 7273,
      "passengers": 7274,
      "norman": 7275,
      "tack": 7276,
      "##iti": 7277,
      "doubles": 7278,
      "museums": 7279,
      "gary": 7280,
      "##eck": 7281,
      "trem": 7282,
      "cards": 7283,
      "##omy": 7284,
      "approp": 7285,
      "decade": 7286,
      "facing": 7287,
      "13th": 7288,
      "##yers": 7289,
      "insurance": 7290,
      "authors": 7291,
      "tries": 7292,
      "rhythm": 7293,
      "tak": 7294,
      "colour": 7295,
      "nash": 7296,
      "capable": 7297,
      "shed": 7298,
      "##hy": 7299,
      "hate": 7300,
      "residential": 7301,
      "1896": 7302,
      "1890": 7303,
      "##icit": 7304,
      "committed": 7305,
      "pound": 7306,
      "baltim": 7307,
      "austin": 7308,
      "12th": 7309,
      "revival": 7310,
      "##pson": 7311,
      "##hs": 7312,
      "collaboration": 7313,
      "lon": 7314,
      "battles": 7315,
      "pic": 7316,
      "cs": 7317,
      "testing": 7318,
      "abc": 7319,
      "rifle": 7320,
      "discography": 7321,
      "##aughters": 7322,
      "##chell": 7323,
      "hurrican": 7324,
      "##46": 7325,
      "1895": 7326,
      "chanc": 7327,
      "baltimore": 7328,
      "commissioner": 7329,
      "shan": 7330,
      "extremely": 7331,
      "contributions": 7332,
      "charges": 7333,
      "!\"": 7334,
      "designer": 7335,
      "gardens": 7336,
      "08": 7337,
      "##ovo": 7338,
      "##uits": 7339,
      "sections": 7340,
      "expert": 7341,
      "07": 7342,
      "##ontin": 7343,
      "beer": 7344,
      "enl": 7345,
      "##apolis": 7346,
      "carlos": 7347,
      "guil": 7348,
      "jonathan": 7349,
      "childhood": 7350,
      "angl": 7351,
      "adventure": 7352,
      "compete": 7353,
      "wondered": 7354,
      "user": 7355,
      "wore": 7356,
      "##alia": 7357,
      "##37": 7358,
      "##orus": 7359,
      "creative": 7360,
      "10th": 7361,
      "finnish": 7362,
      "masters": 7363,
      "smell": 7364,
      "##itals": 7365,
      "lex": 7366,
      "##bow": 7367,
      "1897": 7368,
      "wol": 7369,
      "\").": 7370,
      "graham": 7371,
      "parallel": 7372,
      "slid": 7373,
      "spar": 7374,
      "shrugged": 7375,
      "stewart": 7376,
      "weekend": 7377,
      "overl": 7378,
      "pyr": 7379,
      "responsibility": 7380,
      "##boards": 7381,
      "mars": 7382,
      "storage": 7383,
      "shir": 7384,
      "luke": 7385,
      "##low": 7386,
      "orleans": 7387,
      "campbell": 7388,
      "monarch": 7389,
      "61": 7390,
      "##uster": 7391,
      "interests": 7392,
      "gw": 7393,
      "courses": 7394,
      "adams": 7395,
      "hoped": 7396,
      "strate": 7397,
      "infrastr": 7398,
      "alice": 7399,
      "neighbour": 7400,
      "colony": 7401,
      "neut": 7402,
      "nelson": 7403,
      "##gow": 7404,
      "kennedy": 7405,
      "##pass": 7406,
      "isa": 7407,
      "mirror": 7408,
      "perc": 7409,
      "premiered": 7410,
      "gur": 7411,
      "micros": 7412,
      "vas": 7413,
      "fasc": 7414,
      "obtain": 7415,
      "wire": 7416,
      "##anz": 7417,
      "noble": 7418,
      "##olo": 7419,
      "hab": 7420,
      "jar": 7421,
      "##ieties": 7422,
      "ages": 7423,
      "tub": 7424,
      "##rum": 7425,
      "eval": 7426,
      "distributed": 7427,
      "displ": 7428,
      "strategy": 7429,
      "8th": 7430,
      "rit": 7431,
      "gulf": 7432,
      "usual": 7433,
      "burning": 7434,
      "journalists": 7435,
      "120": 7436,
      "instruments": 7437,
      "bog": 7438,
      "nickn": 7439,
      "temporary": 7440,
      "##issa": 7441,
      "argentine": 7442,
      "bast": 7443,
      "lion": 7444,
      "vienna": 7445,
      "prefecture": 7446,
      "habitat": 7447,
      "praised": 7448,
      "photography": 7449,
      "artistic": 7450,
      "ambassador": 7451,
      "putting": 7452,
      "15th": 7453,
      "routes": 7454,
      "ceo": 7455,
      "glas": 7456,
      "satellite": 7457,
      "throw": 7458,
      "rating": 7459,
      "substant": 7460,
      "encoun": 7461,
      "pup": 7462,
      "##crib": 7463,
      "returns": 7464,
      "andy": 7465,
      "##atically": 7466,
      "sequence": 7467,
      "comed": 7468,
      "leban": 7469,
      "hend": 7470,
      "rice": 7471,
      "bernard": 7472,
      "damaged": 7473,
      "daughters": 7474,
      "undert": 7475,
      "thompson": 7476,
      "mak": 7477,
      "micr": 7478,
      "##organ": 7479,
      "touched": 7480,
      "##zer": 7481,
      "maine": 7482,
      "paraly": 7483,
      "massive": 7484,
      "accom": 7485,
      "dressed": 7486,
      "800": 7487,
      "superior": 7488,
      "worst": 7489,
      "kin": 7490,
      "sult": 7491,
      "cel": 7492,
      "##entially": 7493,
      "terminal": 7494,
      "250": 7495,
      "hampshire": 7496,
      "franklin": 7497,
      "liz": 7498,
      "##bal": 7499,
      "dy": 7500,
      "wrapped": 7501,
      "aware": 7502,
      "measures": 7503,
      "stages": 7504,
      "uss": 7505,
      "lgb": 7506,
      "drove": 7507,
      "grandfather": 7508,
      "spend": 7509,
      "horiz": 7510,
      "burned": 7511,
      "##intend": 7512,
      "##isms": 7513,
      "relax": 7514,
      "##ront": 7515,
      "ski": 7516,
      "raise": 7517,
      "charlotte": 7518,
      "describes": 7519,
      "hob": 7520,
      "option": 7521,
      "chess": 7522,
      "zero": 7523,
      "divor": 7524,
      "honey": 7525,
      "##ucing": 7526,
      "pleasure": 7527,
      "##right": 7528,
      "shift": 7529,
      "cousin": 7530,
      "designs": 7531,
      "sounded": 7532,
      "atm": 7533,
      "accompl": 7534,
      "##wall": 7535,
      "operate": 7536,
      "##acted": 7537,
      "ivan": 7538,
      "morris": 7539,
      "yugoslav": 7540,
      "eug": 7541,
      "willing": 7542,
      "retre": 7543,
      "knees": 7544,
      "micro": 7545,
      "determin": 7546,
      "kath": 7547,
      "select": 7548,
      "impossible": 7549,
      "movies": 7550,
      "reduce": 7551,
      "equivalent": 7552,
      "additionally": 7553,
      "forth": 7554,
      "separated": 7555,
      "sib": 7556,
      "arrival": 7557,
      "##enne": 7558,
      "bridges": 7559,
      "button": 7560,
      "commune": 7561,
      "##estyle": 7562,
      "baker": 7563,
      "fishing": 7564,
      "agree": 7565,
      "guid": 7566,
      "panel": 7567,
      "moments": 7568,
      "revolutionary": 7569,
      "wright": 7570,
      "yout": 7571,
      "72": 7572,
      "franchise": 7573,
      "##haw": 7574,
      "movements": 7575,
      "margin": 7576,
      "14th": 7577,
      "scheme": 7578,
      "stairs": 7579,
      "poem": 7580,
      "spiritual": 7581,
      "faces": 7582,
      "##uki": 7583,
      "somehow": 7584,
      "calcul": 7585,
      "accur": 7586,
      "##lem": 7587,
      "till": 7588,
      "costs": 7589,
      "broadway": 7590,
      "##aza": 7591,
      "carib": 7592,
      "threatened": 7593,
      "asc": 7594,
      "releg": 7595,
      "##lev": 7596,
      "toy": 7597,
      "##going": 7598,
      "certainly": 7599,
      "breat": 7600,
      "warren": 7601,
      "##apy": 7602,
      "fool": 7603,
      "offering": 7604,
      "lgbt": 7605,
      "resign": 7606,
      "##cular": 7607,
      "math": 7608,
      "##44": 7609,
      "concrete": 7610,
      "grim": 7611,
      "1889": 7612,
      "stanley": 7613,
      "suicide": 7614,
      "historians": 7615,
      "portrait": 7616,
      "##195": 7617,
      "##ashi": 7618,
      "infrastructure": 7619,
      "diagn": 7620,
      "luck": 7621,
      "goth": 7622,
      "poets": 7623,
      "##aman": 7624,
      "9th": 7625,
      "worried": 7626,
      "innoc": 7627,
      "landscape": 7628,
      "starred": 7629,
      "warning": 7630,
      "juris": 7631,
      "fo": 7632,
      "##net": 7633,
      "inqu": 7634,
      "kum": 7635,
      "frances": 7636,
      "honest": 7637,
      "mode": 7638,
      "conce": 7639,
      "##itated": 7640,
      "context": 7641,
      "##issions": 7642,
      "##ogy": 7643,
      "resolution": 7644,
      "linked": 7645,
      "1893": 7646,
      "meanwhile": 7647,
      "volleyball": 7648,
      "kilomet": 7649,
      "forb": 7650,
      "scand": 7651,
      "hub": 7652,
      "##iop": 7653,
      "rachel": 7654,
      "##ommod": 7655,
      "incumb": 7656,
      "replace": 7657,
      "feelings": 7658,
      "notably": 7659,
      "monitor": 7660,
      "##what": 7661,
      "cod": 7662,
      "severe": 7663,
      "earliest": 7664,
      "nazi": 7665,
      "crash": 7666,
      "purposes": 7667,
      "clan": 7668,
      "favorite": 7669,
      "##utation": 7670,
      "petr": 7671,
      "reun": 7672,
      "heaven": 7673,
      "brooklyn": 7674,
      "##aware": 7675,
      "phoen": 7676,
      "wag": 7677,
      "parent": 7678,
      "##ancing": 7679,
      "branches": 7680,
      "closing": 7681,
      "archbish": 7682,
      "construct": 7683,
      "kay": 7684,
      "##illing": 7685,
      "hann": 7686,
      "laboratory": 7687,
      "ninet": 7688,
      "fallen": 7689,
      "degrees": 7690,
      "knights": 7691,
      "portland": 7692,
      "##ski": 7693,
      "erect": 7694,
      "benj": 7695,
      "168": 7696,
      "169": 7697,
      "birthday": 7698,
      "understood": 7699,
      "tap": 7700,
      "signs": 7701,
      "##igation": 7702,
      "murray": 7703,
      "indeed": 7704,
      "teach": 7705,
      "accommod": 7706,
      "chick": 7707,
      "driven": 7708,
      "executed": 7709,
      "sanct": 7710,
      "tribe": 7711,
      "venues": 7712,
      "liverpool": 7713,
      "cavalry": 7714,
      "rar": 7715,
      "eighth": 7716,
      "fifteen": 7717,
      "##inian": 7718,
      "editions": 7719,
      "bra": 7720,
      "riding": 7721,
      "admiral": 7722,
      "imprison": 7723,
      "renov": 7724,
      "pron": 7725,
      "##tha": 7726,
      "2000s": 7727,
      "##agger": 7728,
      "tier": 7729,
      "participate": 7730,
      "##oni": 7731,
      "territories": 7732,
      "1894": 7733,
      "casual": 7734,
      "##mingham": 7735,
      "mong": 7736,
      "dreams": 7737,
      "ral": 7738,
      "03": 7739,
      "forget": 7740,
      "locality": 7741,
      "accompanied": 7742,
      "soil": 7743,
      "ng": 7744,
      "bears": 7745,
      "##arn": 7746,
      "honors": 7747,
      "speaker": 7748,
      "dakota": 7749,
      "businesses": 7750,
      "peninsula": 7751,
      "##zi": 7752,
      "##olve": 7753,
      "##ture": 7754,
      "gods": 7755,
      "rocks": 7756,
      "earn": 7757,
      "robinson": 7758,
      "dear": 7759,
      "evans": 7760,
      "##rett": 7761,
      "##inae": 7762,
      "rowspan": 7763,
      "kun": 7764,
      "roughly": 7765,
      "sebast": 7766,
      "brew": 7767,
      "regularly": 7768,
      "pian": 7769,
      "grave": 7770,
      "fifa": 7771,
      "legislation": 7772,
      "tea": 7773,
      "resort": 7774,
      "manh": 7775,
      "##imate": 7776,
      "quietly": 7777,
      "enh": 7778,
      "##face": 7779,
      "rever": 7780,
      "springs": 7781,
      "repair": 7782,
      "demon": 7783,
      "aar": 7784,
      "sul": 7785,
      "lig": 7786,
      "videos": 7787,
      "rejected": 7788,
      "factors": 7789,
      "1892": 7790,
      "bind": 7791,
      "oblast": 7792,
      "scholarship": 7793,
      "##amer": 7794,
      "1885": 7795,
      "ml": 7796,
      "battery": 7797,
      "cum": 7798,
      "calc": 7799,
      "determine": 7800,
      "tech": 7801,
      "filmography": 7802,
      "bishops": 7803,
      "##million": 7804,
      "lung": 7805,
      "11th": 7806,
      "trig": 7807,
      "##bach": 7808,
      "devices": 7809,
      "duties": 7810,
      "barry": 7811,
      "coalition": 7812,
      "kate": 7813,
      "congreg": 7814,
      "analy": 7815,
      "locked": 7816,
      "nad": 7817,
      "ferr": 7818,
      "secure": 7819,
      "mounted": 7820,
      "sean": 7821,
      "approached": 7822,
      "##tress": 7823,
      "descend": 7824,
      "##lov": 7825,
      "emma": 7826,
      "studying": 7827,
      "normally": 7828,
      "##attan": 7829,
      "marketing": 7830,
      "##iology": 7831,
      "convinc": 7832,
      "credits": 7833,
      "##itr": 7834,
      "##ographics": 7835,
      "credited": 7836,
      "drugs": 7837,
      "dancing": 7838,
      "birmingham": 7839,
      "1891": 7840,
      "##cs": 7841,
      "##ussion": 7842,
      "##know": 7843,
      "cable": 7844,
      "pri": 7845,
      "merchant": 7846,
      "disappeared": 7847,
      "confront": 7848,
      "##ranean": 7849,
      "photographer": 7850,
      "assign": 7851,
      "somewhat": 7852,
      "##asp": 7853,
      "nova": 7854,
      "##ties": 7855,
      "parad": 7856,
      "##bel": 7857,
      "##erbai": 7858,
      "persp": 7859,
      "griff": 7860,
      "##orf": 7861,
      "surge": 7862,
      "##oka": 7863,
      "##mat": 7864,
      "marit": 7865,
      "165": 7866,
      "azerbai": 7867,
      "##attered": 7868,
      "1888": 7869,
      "arrest": 7870,
      "concerns": 7871,
      "##rick": 7872,
      "forming": 7873,
      "wayne": 7874,
      "passage": 7875,
      "hoping": 7876,
      "solution": 7877,
      "tourist": 7878,
      "hundreds": 7879,
      "##efa": 7880,
      "##cha": 7881,
      "abbey": 7882,
      "demographics": 7883,
      "marks": 7884,
      "dart": 7885,
      "mood": 7886,
      "ff": 7887,
      "tests": 7888,
      "##lington": 7889,
      "luis": 7890,
      "pont": 7891,
      "shifted": 7892,
      "##urt": 7893,
      "liquid": 7894,
      "gently": 7895,
      "matters": 7896,
      "encycl": 7897,
      "stu": 7898,
      "random": 7899,
      "##kar": 7900,
      "overse": 7901,
      "prohib": 7902,
      "entering": 7903,
      "helic": 7904,
      "regulations": 7905,
      "nba": 7906,
      "wre": 7907,
      "##hard": 7908,
      "##verty": 7909,
      "choose": 7910,
      "afterwards": 7911,
      "egyptian": 7912,
      "##coming": 7913,
      "##olves": 7914,
      "racial": 7915,
      "eddie": 7916,
      "rico": 7917,
      "database": 7918,
      "ownership": 7919,
      "intent": 7920,
      "electrical": 7921,
      "saved": 7922,
      "softly": 7923,
      "guitarist": 7924,
      "04": 7925,
      "passion": 7926,
      "##nia": 7927,
      "controversy": 7928,
      "chemistry": 7929,
      "absor": 7930,
      "clothing": 7931,
      "ri": 7932,
      "continuing": 7933,
      "instrumental": 7934,
      "license": 7935,
      "charity": 7936,
      "uefa": 7937,
      "acknow": 7938,
      "pandemic": 7939,
      "pharm": 7940,
      "nicholas": 7941,
      "166": 7942,
      "ensure": 7943,
      "isab": 7944,
      "landed": 7945,
      "##asha": 7946,
      "meg": 7947,
      "##rome": 7948,
      "commit": 7949,
      "voices": 7950,
      "leather": 7951,
      "networks": 7952,
      "##31": 7953,
      "symp": 7954,
      "taste": 7955,
      "businessman": 7956,
      "restored": 7957,
      "mediter": 7958,
      "smoke": 7959,
      "cloud": 7960,
      "alp": 7961,
      "confused": 7962,
      "##ophone": 7963,
      "##34": 7964,
      "knife": 7965,
      "bil": 7966,
      "##ario": 7967,
      "##mus": 7968,
      "oliver": 7969,
      "adding": 7970,
      "debuted": 7971,
      "constitutional": 7972,
      "poverty": 7973,
      "youtube": 7974,
      "visiting": 7975,
      "gift": 7976,
      "flew": 7977,
      "##eenth": 7978,
      "export": 7979,
      "personality": 7980,
      "communes": 7981,
      "garr": 7982,
      "sultan": 7983,
      "##gle": 7984,
      "##bean": 7985,
      "disappoint": 7986,
      "prad": 7987,
      "subjects": 7988,
      "shopping": 7989,
      "iranian": 7990,
      "preced": 7991,
      "luther": 7992,
      "marath": 7993,
      "serbia": 7994,
      "surren": 7995,
      "seriously": 7996,
      "hyper": 7997,
      "nr": 7998,
      "corporate": 7999,
      "charter": 8000,
      "occupation": 8001,
      "warner": 8002,
      "carn": 8003,
      "atmosp": 8004,
      "medals": 8005,
      "coaching": 8006,
      "kor": 8007,
      "friday": 8008,
      "##eler": 8009,
      "vlad": 8010,
      "jama": 8011,
      "##ecess": 8012,
      "tired": 8013,
      "stamp": 8014,
      "legislature": 8015,
      "allied": 8016,
      "nut": 8017,
      "##place": 8018,
      "##ilst": 8019,
      "patt": 8020,
      "bone": 8021,
      "taxa": 8022,
      "##aa": 8023,
      "meters": 8024,
      "mini": 8025,
      "depth": 8026,
      "surgery": 8027,
      "prompt": 8028,
      "talent": 8029,
      "##erce": 8030,
      "deck": 8031,
      "##tenance": 8032,
      "worship": 8033,
      "boats": 8034,
      "vincent": 8035,
      "tools": 8036,
      "agents": 8037,
      "benjamin": 8038,
      "##aig": 8039,
      "policies": 8040,
      "##ounced": 8041,
      "didn": 8042,
      "##aze": 8043,
      "begun": 8044,
      "faster": 8045,
      "fifty": 8046,
      "lawyers": 8047,
      "mitchell": 8048,
      "peop": 8049,
      "interrupt": 8050,
      "carefully": 8051,
      "lp": 8052,
      "visitors": 8053,
      "1887": 8054,
      "##bul": 8055,
      "fault": 8056,
      "tourism": 8057,
      "dna": 8058,
      "barbara": 8059,
      "experimental": 8060,
      "waste": 8061,
      "##asi": 8062,
      "##iri": 8063,
      "##orted": 8064,
      "toss": 8065,
      "hut": 8066,
      "occasionally": 8067,
      "madrid": 8068,
      "##acht": 8069,
      "yorkshire": 8070,
      "forty": 8071,
      "retain": 8072,
      "##oves": 8073,
      "##aring": 8074,
      "trick": 8075,
      "mate": 8076,
      "##ahn": 8077,
      "activist": 8078,
      "##eta": 8079,
      "balance": 8080,
      "|}": 8081,
      "##lie": 8082,
      "bullet": 8083,
      "seek": 8084,
      "curt": 8085,
      "domain": 8086,
      "##alis": 8087,
      "parking": 8088,
      "##itable": 8089,
      "visible": 8090,
      "worksh": 8091,
      "practices": 8092,
      "##illo": 8093,
      "##cm": 8094,
      "##phy": 8095,
      "lanka": 8096,
      "width": 8097,
      "1880": 8098,
      "martial": 8099,
      "replacement": 8100,
      "relative": 8101,
      "parker": 8102,
      "circumst": 8103,
      "commem": 8104,
      "##mate": 8105,
      "##owski": 8106,
      "phr": 8107,
      "encyclop": 8108,
      "provision": 8109,
      "outer": 8110,
      "##the": 8111,
      "##oker": 8112,
      "lingu": 8113,
      "##esents": 8114,
      "sink": 8115,
      "basin": 8116,
      "summary": 8117,
      "dated": 8118,
      "coverage": 8119,
      "appointment": 8120,
      "centers": 8121,
      "realize": 8122,
      "vary": 8123,
      "aspects": 8124,
      "##encer": 8125,
      "depression": 8126,
      "forests": 8127,
      "meat": 8128,
      "maid": 8129,
      "##iba": 8130,
      "differences": 8131,
      "guilty": 8132,
      "whilst": 8133,
      "dw": 8134,
      "employment": 8135,
      "peoples": 8136,
      "represents": 8137,
      "julian": 8138,
      "debate": 8139,
      "##enses": 8140,
      "triple": 8141,
      "bible": 8142,
      "##estr": 8143,
      "hosts": 8144,
      "tigers": 8145,
      "operational": 8146,
      "font": 8147,
      "manga": 8148,
      "rip": 8149,
      "flesh": 8150,
      "sustain": 8151,
      "formally": 8152,
      "alleg": 8153,
      "symphony": 8154,
      "fol": 8155,
      "fed": 8156,
      "sung": 8157,
      "beth": 8158,
      "progressive": 8159,
      "rebell": 8160,
      "operates": 8161,
      "defeating": 8162,
      "hawaii": 8163,
      "##iters": 8164,
      "bak": 8165,
      "tib": 8166,
      "restoration": 8167,
      "withdraw": 8168,
      "##case": 8169,
      "##arus": 8170,
      "definition": 8171,
      "duc": 8172,
      "commerce": 8173,
      "patient": 8174,
      "reconstr": 8175,
      "1865": 8176,
      "167": 8177,
      "##uccess": 8178,
      "horr": 8179,
      "1886": 8180,
      "thorn": 8181,
      "meets": 8182,
      "blocks": 8183,
      "stress": 8184,
      "au": 8185,
      "decide": 8186,
      "serial": 8187,
      "enjoyed": 8188,
      "benefit": 8189,
      "losses": 8190,
      "blond": 8191,
      "choir": 8192,
      "memories": 8193,
      "94": 8194,
      "##uda": 8195,
      "lis": 8196,
      "unsuccess": 8197,
      "##rical": 8198,
      "cited": 8199,
      "responded": 8200,
      "paralymp": 8201,
      "boundary": 8202,
      "mul": 8203,
      "baptist": 8204,
      "statue": 8205,
      "richmond": 8206,
      "bald": 8207,
      "jerry": 8208,
      "hindu": 8209,
      "fitz": 8210,
      "cypr": 8211,
      "glasgow": 8212,
      "scout": 8213,
      "breathing": 8214,
      "sheriff": 8215,
      "ghana": 8216,
      "71": 8217,
      "helen": 8218,
      "milan": 8219,
      "portrayed": 8220,
      "existed": 8221,
      "vessels": 8222,
      "retained": 8223,
      "moves": 8224,
      "genre": 8225,
      "channels": 8226,
      "strategic": 8227,
      "gotten": 8228,
      "##order": 8229,
      "##point": 8230,
      "synthes": 8231,
      "##iko": 8232,
      "pd": 8233,
      "consp": 8234,
      "##master": 8235,
      "industries": 8236,
      "masc": 8237,
      "upgr": 8238,
      "treated": 8239,
      "quart": 8240,
      "technique": 8241,
      "copy": 8242,
      "mediterranean": 8243,
      "##using": 8244,
      "jobs": 8245,
      "missions": 8246,
      "accounts": 8247,
      "transit": 8248,
      "lucky": 8249,
      "swing": 8250,
      "sees": 8251,
      "waist": 8252,
      "mystery": 8253,
      "02": 8254,
      "nigeria": 8255,
      "guer": 8256,
      "##anche": 8257,
      "giants": 8258,
      "nest": 8259,
      "##encing": 8260,
      "gust": 8261,
      "burst": 8262,
      "shakes": 8263,
      "##oba": 8264,
      "extreme": 8265,
      "plastic": 8266,
      "bold": 8267,
      "entre": 8268,
      "##mel": 8269,
      "voy": 8270,
      "##alf": 8271,
      "marvel": 8272,
      "yu": 8273,
      "##away": 8274,
      "criticized": 8275,
      "victorian": 8276,
      "##imp": 8277,
      "agencies": 8278,
      "bug": 8279,
      "rounds": 8280,
      "crimes": 8281,
      "requirements": 8282,
      "origins": 8283,
      "patrol": 8284,
      "architectural": 8285,
      "##adi": 8286,
      "incorpor": 8287,
      "ive": 8288,
      "adults": 8289,
      "##mund": 8290,
      "maintenance": 8291,
      "survive": 8292,
      "hull": 8293,
      "struggle": 8294,
      "fled": 8295,
      "demanded": 8296,
      "organis": 8297,
      "phoenix": 8298,
      "##urg": 8299,
      "hanging": 8300,
      "##ige": 8301,
      "gap": 8302,
      "appearing": 8303,
      "mills": 8304,
      "bathroom": 8305,
      "significantly": 8306,
      "nomination": 8307,
      "mold": 8308,
      "intention": 8309,
      "##orship": 8310,
      "jet": 8311,
      "guinea": 8312,
      "bio": 8313,
      "lun": 8314,
      "philosopher": 8315,
      "ports": 8316,
      "pent": 8317,
      "aj": 8318,
      "mechanical": 8319,
      "##sters": 8320,
      "intellect": 8321,
      "##yon": 8322,
      "len": 8323,
      "aunt": 8324,
      "peru": 8325,
      "##ml": 8326,
      "##olt": 8327,
      "prote": 8328,
      "depending": 8329,
      "exception": 8330,
      "volumes": 8331,
      "159": 8332,
      "breast": 8333,
      "feels": 8334,
      "##enson": 8335,
      "semif": 8336,
      "py": 8337,
      "playoffs": 8338,
      "buffalo": 8339,
      "tri": 8340,
      "reputation": 8341,
      "diction": 8342,
      "alcohol": 8343,
      "##ielder": 8344,
      "amendment": 8345,
      "82": 8346,
      "archives": 8347,
      "##bot": 8348,
      "initiative": 8349,
      "forum": 8350,
      "classified": 8351,
      "##berts": 8352,
      "summit": 8353,
      "##ashing": 8354,
      "##obi": 8355,
      "ears": 8356,
      "bic": 8357,
      "false": 8358,
      "jen": 8359,
      "photos": 8360,
      "echo": 8361,
      "holiday": 8362,
      "1864": 8363,
      "dece": 8364,
      "indians": 8365,
      "##cred": 8366,
      "costa": 8367,
      "hugh": 8368,
      "ethan": 8369,
      "eliminated": 8370,
      "hood": 8371,
      "##ouver": 8372,
      "dogs": 8373,
      "promised": 8374,
      "pole": 8375,
      "alaska": 8376,
      "markets": 8377,
      "caribbean": 8378,
      "crystal": 8379,
      "fate": 8380,
      "recept": 8381,
      "frequency": 8382,
      "delhi": 8383,
      "##thy": 8384,
      "vanc": 8385,
      "##olia": 8386,
      "anime": 8387,
      "##itched": 8388,
      "monster": 8389,
      "kap": 8390,
      "wildlife": 8391,
      "mull": 8392,
      "affect": 8393,
      "filmed": 8394,
      "warriors": 8395,
      "lucas": 8396,
      "1884": 8397,
      "##yler": 8398,
      "adaptation": 8399,
      "archbishop": 8400,
      "indicated": 8401,
      "##boy": 8402,
      "gau": 8403,
      "##oga": 8404,
      "cbs": 8405,
      "acoust": 8406,
      "sut": 8407,
      "##nik": 8408,
      "rol": 8409,
      "filed": 8410,
      "##icing": 8411,
      "truly": 8412,
      "sz": 8413,
      "archaeological": 8414,
      "##ivan": 8415,
      "approval": 8416,
      "powered": 8417,
      "##ingham": 8418,
      "successor": 8419,
      "1861": 8420,
      "surviv": 8421,
      "rangers": 8422,
      "lag": 8423,
      "vessel": 8424,
      "susan": 8425,
      "mig": 8426,
      "ns": 8427,
      "clinical": 8428,
      "suggests": 8429,
      "nevada": 8430,
      "ruth": 8431,
      "##certain": 8432,
      "mines": 8433,
      "sha": 8434,
      "bub": 8435,
      "1870": 8436,
      "pine": 8437,
      "ladies": 8438,
      "shaking": 8439,
      "##usalem": 8440,
      "obviously": 8441,
      "gabriel": 8442,
      "roots": 8443,
      "81": 8444,
      "heading": 8445,
      "emerged": 8446,
      "railways": 8447,
      "jumped": 8448,
      "components": 8449,
      "##rix": 8450,
      "cliff": 8451,
      "rates": 8452,
      "airlines": 8453,
      "nun": 8454,
      "lions": 8455,
      "percussion": 8456,
      "nebr": 8457,
      "syl": 8458,
      "bobby": 8459,
      "().": 8460,
      "witch": 8461,
      "pradesh": 8462,
      "acted": 8463,
      "runners": 8464,
      "festivals": 8465,
      "cyl": 8466,
      "sigh": 8467,
      "scientist": 8468,
      "##fia": 8469,
      "bacter": 8470,
      "processes": 8471,
      "crick": 8472,
      "unusual": 8473,
      "=\"#": 8474,
      "##uzz": 8475,
      "guar": 8476,
      "tum": 8477,
      "err": 8478,
      "##oop": 8479,
      "##othy": 8480,
      "suspic": 8481,
      "1920s": 8482,
      "##imir": 8483,
      "spending": 8484,
      "hein": 8485,
      "rou": 8486,
      "##ruption": 8487,
      "trading": 8488,
      "imagine": 8489,
      "illegal": 8490,
      "busy": 8491,
      "1881": 8492,
      "##estone": 8493,
      "paused": 8494,
      "sara": 8495,
      "wang": 8496,
      "equipped": 8497,
      "vast": 8498,
      "va": 8499,
      "##inter": 8500,
      "letting": 8501,
      "sleeping": 8502,
      "voting": 8503,
      "jerusalem": 8504,
      "##omed": 8505,
      "1863": 8506,
      "heir": 8507,
      "##equ": 8508,
      "goog": 8509,
      "##anes": 8510,
      "##fast": 8511,
      "suffering": 8512,
      "moll": 8513,
      "blow": 8514,
      "emer": 8515,
      "gul": 8516,
      "voiv": 8517,
      "yam": 8518,
      "tribut": 8519,
      "detective": 8520,
      "depict": 8521,
      "cabin": 8522,
      "punish": 8523,
      "standings": 8524,
      "93": 8525,
      "turner": 8526,
      "ip": 8527,
      "moder": 8528,
      "##antine": 8529,
      "representation": 8530,
      "##nan": 8531,
      "neil": 8532,
      "##41": 8533,
      "acquis": 8534,
      "fabric": 8535,
      "scope": 8536,
      "popularity": 8537,
      "##ido": 8538,
      "bones": 8539,
      "collins": 8540,
      "##igar": 8541,
      "interesting": 8542,
      "##gate": 8543,
      "slovak": 8544,
      "vancouver": 8545,
      "corp": 8546,
      "harrison": 8547,
      "coron": 8548,
      "waves": 8549,
      "jury": 8550,
      "beating": 8551,
      "drinking": 8552,
      "rapidly": 8553,
      "##inations": 8554,
      "incumbent": 8555,
      "alberta": 8556,
      "hurricane": 8557,
      "stef": 8558,
      "rus": 8559,
      "tyr": 8560,
      "guardian": 8561,
      "##omen": 8562,
      "resid": 8563,
      "compre": 8564,
      "flows": 8565,
      "##fare": 8566,
      "craig": 8567,
      "destruction": 8568,
      "##ipts": 8569,
      "##erted": 8570,
      "manhattan": 8571,
      "minimum": 8572,
      "arabic": 8573,
      "cotton": 8574,
      "instance": 8575,
      "chel": 8576,
      "injuries": 8577,
      "exha": 8578,
      "proposal": 8579,
      "rag": 8580,
      "maritime": 8581,
      "gathered": 8582,
      "daw": 8583,
      "amongst": 8584,
      "stuck": 8585,
      "slave": 8586,
      "replacing": 8587,
      "democrats": 8588,
      "processing": 8589,
      "sporting": 8590,
      "requires": 8591,
      "dual": 8592,
      "killer": 8593,
      "sentence": 8594,
      "enth": 8595,
      "##iph": 8596,
      "advice": 8597,
      "throne": 8598,
      "##sea": 8599,
      "smiling": 8600,
      "participation": 8601,
      "bour": 8602,
      "130": 8603,
      "continental": 8604,
      "larry": 8605,
      "colors": 8606,
      "emily": 8607,
      "philippine": 8608,
      "supplies": 8609,
      "frustr": 8610,
      "##enburg": 8611,
      "##iture": 8612,
      "dil": 8613,
      "##opes": 8614,
      "quad": 8615,
      "spider": 8616,
      "milk": 8617,
      "anat": 8618,
      "eagle": 8619,
      "##aha": 8620,
      "glac": 8621,
      "##aments": 8622,
      "sculpture": 8623,
      "##ju": 8624,
      "nepal": 8625,
      "muhammad": 8626,
      "kol": 8627,
      "afghanistan": 8628,
      "conscious": 8629,
      "locomotives": 8630,
      "experiences": 8631,
      "foster": 8632,
      "83": 8633,
      "prost": 8634,
      "cinc": 8635,
      "trinity": 8636,
      "lav": 8637,
      "printed": 8638,
      "electricity": 8639,
      "##ception": 8640,
      "genes": 8641,
      "exit": 8642,
      "prel": 8643,
      "##acts": 8644,
      "wanting": 8645,
      "##donald": 8646,
      "surviving": 8647,
      "ecc": 8648,
      "##abled": 8649,
      "tick": 8650,
      "segment": 8651,
      "exposed": 8652,
      "manage": 8653,
      "naked": 8654,
      "tribes": 8655,
      "peer": 8656,
      "jerem": 8657,
      "##jar": 8658,
      "traveled": 8659,
      "longest": 8660,
      "##fam": 8661,
      "gut": 8662,
      "modified": 8663,
      "wis": 8664,
      "myster": 8665,
      "consol": 8666,
      "##enda": 8667,
      "denied": 8668,
      "##iciency": 8669,
      "##oca": 8670,
      "eating": 8671,
      "1882": 8672,
      "integrated": 8673,
      "ninth": 8674,
      "##uli": 8675,
      "achievement": 8676,
      "useful": 8677,
      "makeup": 8678,
      "monastery": 8679,
      "adopt": 8680,
      "antar": 8681,
      "bother": 8682,
      "siege": 8683,
      "##eted": 8684,
      "colombia": 8685,
      "pon": 8686,
      "seeking": 8687,
      "https": 8688,
      "strongly": 8689,
      "danny": 8690,
      "cargo": 8691,
      "chi": 8692,
      "##inted": 8693,
      "##yll": 8694,
      "mend": 8695,
      "nbc": 8696,
      "loop": 8697,
      "penalty": 8698,
      "terry": 8699,
      "reporter": 8700,
      "ling": 8701,
      "ralph": 8702,
      "1862": 8703,
      "devil": 8704,
      "maced": 8705,
      "optim": 8706,
      "##aca": 8707,
      "suspended": 8708,
      "demolished": 8709,
      "signif": 8710,
      "dying": 8711,
      "##ivated": 8712,
      "orn": 8713,
      "mik": 8714,
      "pc": 8715,
      "talked": 8716,
      "##iors": 8717,
      "definitely": 8718,
      "perp": 8719,
      "meetings": 8720,
      "stir": 8721,
      "participants": 8722,
      "nervous": 8723,
      "peaked": 8724,
      "nebraska": 8725,
      "detail": 8726,
      "possibility": 8727,
      "characteristics": 8728,
      "prosp": 8729,
      "chancell": 8730,
      "##rets": 8731,
      "achieve": 8732,
      "reinfor": 8733,
      "timber": 8734,
      "##ulu": 8735,
      "92": 8736,
      "##val": 8737,
      "virtual": 8738,
      "whereas": 8739,
      "drunk": 8740,
      "psychology": 8741,
      "indicate": 8742,
      "##jab": 8743,
      "chal": 8744,
      "bristol": 8745,
      "earthqu": 8746,
      "animation": 8747,
      "bench": 8748,
      "theres": 8749,
      "reprod": 8750,
      "catherine": 8751,
      "##icul": 8752,
      "##feld": 8753,
      "##break": 8754,
      "geomet": 8755,
      "##otype": 8756,
      "gamb": 8757,
      "influential": 8758,
      "bottle": 8759,
      "alger": 8760,
      "backed": 8761,
      "##osph": 8762,
      "mick": 8763,
      "maps": 8764,
      "heb": 8765,
      "democracy": 8766,
      "##nal": 8767,
      "beck": 8768,
      "involvement": 8769,
      "logan": 8770,
      "sak": 8771,
      "vern": 8772,
      "##dles": 8773,
      "das": 8774,
      "filip": 8775,
      "tent": 8776,
      "##uka": 8777,
      "amph": 8778,
      "leo": 8779,
      "jurisd": 8780,
      "theod": 8781,
      "obvious": 8782,
      "slipped": 8783,
      "harbor": 8784,
      "##credited": 8785,
      "releases": 8786,
      "glen": 8787,
      "til": 8788,
      "teleph": 8789,
      "spaces": 8790,
      "##zo": 8791,
      "tat": 8792,
      "stones": 8793,
      "activists": 8794,
      "themes": 8795,
      "google": 8796,
      "increasingly": 8797,
      "sessions": 8798,
      "%,": 8799,
      "nu": 8800,
      "texts": 8801,
      "decline": 8802,
      "##elia": 8803,
      "immediate": 8804,
      "hudson": 8805,
      "discip": 8806,
      "sebastian": 8807,
      "##stad": 8808,
      "revenue": 8809,
      "##86": 8810,
      "controll": 8811,
      "cort": 8812,
      "sap": 8813,
      "trent": 8814,
      "possess": 8815,
      "hispan": 8816,
      "kirk": 8817,
      "declined": 8818,
      "keith": 8819,
      "bru": 8820,
      "signing": 8821,
      "welcome": 8822,
      "blake": 8823,
      "listening": 8824,
      "1883": 8825,
      "keys": 8826,
      "##amental": 8827,
      "1878": 8828,
      "indoor": 8829,
      "competing": 8830,
      "##istical": 8831,
      "violent": 8832,
      "radical": 8833,
      "strict": 8834,
      "knee": 8835,
      "valid": 8836,
      "farmers": 8837,
      "##hum": 8838,
      "stable": 8839,
      "##mates": 8840,
      "##holder": 8841,
      "adela": 8842,
      "##iration": 8843,
      "##mother": 8844,
      "photographs": 8845,
      "advertising": 8846,
      "avo": 8847,
      "sloven": 8848,
      "1876": 8849,
      "illustrated": 8850,
      "##ascar": 8851,
      "##hal": 8852,
      "snapped": 8853,
      "montana": 8854,
      "uncertain": 8855,
      "jamie": 8856,
      "circumstances": 8857,
      "gif": 8858,
      "prove": 8859,
      "relationships": 8860,
      "sending": 8861,
      "voivodes": 8862,
      "essential": 8863,
      "##acked": 8864,
      "##lings": 8865,
      "lamp": 8866,
      "biology": 8867,
      "uncom": 8868,
      "manif": 8869,
      "stol": 8870,
      "copper": 8871,
      "subsidi": 8872,
      "cleared": 8873,
      "butler": 8874,
      "roster": 8875,
      "steven": 8876,
      "botan": 8877,
      "outd": 8878,
      "blade": 8879,
      "celebrated": 8880,
      ".:": 8881,
      "##enberg": 8882,
      "ced": 8883,
      "##essa": 8884,
      "##cling": 8885,
      "laughing": 8886,
      "simpl": 8887,
      "##sm": 8888,
      "##fortun": 8889,
      "fier": 8890,
      "preserved": 8891,
      "1000": 8892,
      "purple": 8893,
      "claire": 8894,
      "triang": 8895,
      "rust": 8896,
      "##vis": 8897,
      "pere": 8898,
      "croatian": 8899,
      "##laimed": 8900,
      "murm": 8901,
      "voiced": 8902,
      "premiere": 8903,
      "voivodeship": 8904,
      "serie": 8905,
      "manor": 8906,
      "poison": 8907,
      "flav": 8908,
      "moroc": 8909,
      "vegas": 8910,
      "friendship": 8911,
      "110": 8912,
      "##kov": 8913,
      "sull": 8914,
      "155": 8915,
      "##hill": 8916,
      "oz": 8917,
      "principles": 8918,
      "wells": 8919,
      "aber": 8920,
      "##kan": 8921,
      "architects": 8922,
      "##90": 8923,
      "download": 8924,
      "lasted": 8925,
      "dum": 8926,
      "perry": 8927,
      "funny": 8928,
      "##aws": 8929,
      "##bled": 8930,
      "##teenth": 8931,
      "alien": 8932,
      "##agement": 8933,
      "vig": 8934,
      "youngest": 8935,
      "##wig": 8936,
      "nominations": 8937,
      "commanded": 8938,
      "mck": 8939,
      "stem": 8940,
      "##eva": 8941,
      "julia": 8942,
      "bengal": 8943,
      "##lett": 8944,
      "belonged": 8945,
      "kab": 8946,
      "aggreg": 8947,
      "todd": 8948,
      "researchers": 8949,
      "91": 8950,
      "godd": 8951,
      "anthrop": 8952,
      "##idad": 8953,
      "##eon": 8954,
      "gem": 8955,
      "##urers": 8956,
      "aur": 8957,
      "abuse": 8958,
      "seeds": 8959,
      "submarine": 8960,
      "counsel": 8961,
      "##abet": 8962,
      "gates": 8963,
      "biological": 8964,
      "pride": 8965,
      "roberts": 8966,
      "borders": 8967,
      "describe": 8968,
      "raising": 8969,
      "##ving": 8970,
      "dawn": 8971,
      "attracted": 8972,
      "duo": 8973,
      "sket": 8974,
      "lifetime": 8975,
      "corrid": 8976,
      "beij": 8977,
      "strang": 8978,
      "cott": 8979,
      "1879": 8980,
      "merit": 8981,
      "rodrig": 8982,
      "nights": 8983,
      "telec": 8984,
      "##omon": 8985,
      "viv": 8986,
      "transmission": 8987,
      "nearest": 8988,
      "##nell": 8989,
      "##endar": 8990,
      "sole": 8991,
      "yang": 8992,
      "##oys": 8993,
      "shoes": 8994,
      "henri": 8995,
      "##fs": 8996,
      "sacred": 8997,
      "lloyd": 8998,
      "##isb": 8999,
      "sao": 9000,
      "gren": 9001,
      "tale": 9002,
      "uh": 9003,
      "commemor": 9004,
      "competitors": 9005,
      "ht": 9006,
      "protests": 9007,
      "boxing": 9008,
      "1860": 9009,
      "##aco": 9010,
      "sic": 9011,
      "angels": 9012,
      "herbert": 9013,
      "cuba": 9014,
      "##vere": 9015,
      "explan": 9016,
      "affair": 9017,
      "harold": 9018,
      "graduating": 9019,
      "guests": 9020,
      "villa": 9021,
      "##abilities": 9022,
      "wu": 9023,
      "##hor": 9024,
      "recovered": 9025,
      "persian": 9026,
      "##iece": 9027,
      "cosm": 9028,
      "considerable": 9029,
      "tiger": 9030,
      "detailed": 9031,
      "recur": 9032,
      "sank": 9033,
      "saudi": 9034,
      "##oving": 9035,
      "venue": 9036,
      "##fish": 9037,
      "completion": 9038,
      "##eries": 9039,
      "licensed": 9040,
      "wer": 9041,
      "cincinn": 9042,
      "lil": 9043,
      "##athy": 9044,
      "tempor": 9045,
      "proof": 9046,
      "aimed": 9047,
      "##gart": 9048,
      "wool": 9049,
      "competitive": 9050,
      "outl": 9051,
      "dock": 9052,
      "##folk": 9053,
      "stuart": 9054,
      "resemb": 9055,
      "##helm": 9056,
      "cooperation": 9057,
      "ai": 9058,
      "tool": 9059,
      "loose": 9060,
      "absence": 9061,
      "concentration": 9062,
      "victim": 9063,
      "shower": 9064,
      "shaw": 9065,
      "remove": 9066,
      "keyboards": 9067,
      "governments": 9068,
      "armenian": 9069,
      "ost": 9070,
      "murdered": 9071,
      "cutting": 9072,
      "blog": 9073,
      "ferry": 9074,
      "unfortun": 9075,
      "##berry": 9076,
      "shake": 9077,
      "ceiling": 9078,
      "##urally": 9079,
      "jin": 9080,
      "sponsored": 9081,
      "##brid": 9082,
      "amy": 9083,
      "lift": 9084,
      "1875": 9085,
      "provinces": 9086,
      "worn": 9087,
      "specim": 9088,
      "##van": 9089,
      "alpha": 9090,
      "assum": 9091,
      "chat": 9092,
      "##32": 9093,
      "madison": 9094,
      "##85": 9095,
      "sergeant": 9096,
      "deserv": 9097,
      "wik": 9098,
      "lunch": 9099,
      "anywhere": 9100,
      "gle": 9101,
      "ou": 9102,
      "##oded": 9103,
      "acoustic": 9104,
      "bry": 9105,
      "considering": 9106,
      "dennis": 9107,
      "remar": 9108,
      "distur": 9109,
      "gradually": 9110,
      "1877": 9111,
      "##gradu": 9112,
      "##acon": 9113,
      "trials": 9114,
      "barcel": 9115,
      "couples": 9116,
      "700": 9117,
      "##99": 9118,
      "platforms": 9119,
      "bare": 9120,
      "beijing": 9121,
      "1867": 9122,
      "##inus": 9123,
      "screenwr": 9124,
      "cincinnati": 9125,
      "zur": 9126,
      "discussion": 9127,
      "civilian": 9128,
      "##vo": 9129,
      "icel": 9130,
      "organisations": 9131,
      "legion": 9132,
      "contribution": 9133,
      "marcus": 9134,
      "deeply": 9135,
      "overview": 9136,
      "ki": 9137,
      "monthly": 9138,
      "overseas": 9139,
      "##eno": 9140,
      "##icking": 9141,
      "easier": 9142,
      "ballet": 9143,
      "vit": 9144,
      "##42": 9145,
      "canton": 9146,
      "kle": 9147,
      "prest": 9148,
      "1871": 9149,
      "uncredited": 9150,
      "tales": 9151,
      "tiss": 9152,
      "cream": 9153,
      "##after": 9154,
      "managing": 9155,
      "##inction": 9156,
      "cancelled": 9157,
      "output": 9158,
      "styles": 9159,
      "wides": 9160,
      "departure": 9161,
      "pruss": 9162,
      "tul": 9163,
      "illness": 9164,
      "journals": 9165,
      "streng": 9166,
      "similarly": 9167,
      "##anim": 9168,
      "pioneer": 9169,
      "eve": 9170,
      "arrangement": 9171,
      "funeral": 9172,
      "##keeper": 9173,
      "prol": 9174,
      "justin": 9175,
      "convicted": 9176,
      "motors": 9177,
      "hence": 9178,
      "##sed": 9179,
      "hammer": 9180,
      "elig": 9181,
      "scared": 9182,
      "customers": 9183,
      "affiliated": 9184,
      "sne": 9185,
      "iceland": 9186,
      "nhl": 9187,
      "judg": 9188,
      "adelaide": 9189,
      "simult": 9190,
[...]
